[PAD]
[UNK]
[CLS]
[SEP]
[MASK]
!
"
$
%
&
'
(
)
*
,
-
.
/
0
1
2
3
4
5
6
7
8
9
:
;
<
=
>
A
B
C
D
E
F
G
H
I
J
K
L
M
N
O
P
Q
R
S
T
U
V
W
X
Y
Z
[
\
]
_
`
a
b
c
d
e
f
g
h
i
j
k
l
m
n
o
p
q
r
s
t
u
v
w
x
y
z
{
|
}
~
£
«
®
°
±
²
³
´
µ
·
»
¼
Á
Â
Ç
É
Ó
Ö
×
Ú
Þ
ß
à
â
ã
ä
å
æ
ç
è
é
ê
ë
ì
í
ï
ñ
ò
ó
ô
ö
ø
ù
ú
û
ü
ý
ā
ă
ć
Č
Đ
ē
ğ
ī
İ
ı
ł
ņ
ő
Ś
ş
Š
š
ū
Ž
ơ
ư
Ǧ
ț
ȳ
ɒ
ɪ
ɾ
ʁ
ʒ
ʿ
ˈ
˘
˹
˼
́
·
ΐ
Α
Β
Γ
Δ
Ε
Ζ
Θ
Κ
Μ
Π
ά
έ
ί
α
β
γ
δ
ε
η
θ
ι
κ
λ
μ
ν
ο
π
ρ
ς
σ
τ
υ
χ
ω
ό
ύ
І
А
Б
В
Г
Д
Ж
И
К
Л
М
О
П
Р
С
Т
Х
Ц
Ч
Ю
а
б
в
г
д
е
ж
з
и
й
к
л
м
н
о
п
р
с
т
у
х
ц
ч
ш
ъ
ы
ь
э
ю
я
ё
њ
ћ
א
ר
ا
ب
ة
ت
ث
ج
ح
د
ر
ز
س
ش
ط
ظ
ع
ف
ك
ل
م
ن
ه
و
ي
ڤ
ہ
ی
ज
द
न
ब
म
र
ह
़
ा
ी
ु
्
ላ
መ
ር
ና
ኔ
ን
ኪ
ዘ
ድ
ḥ
ṛ
ạ
ả
ầ
ậ
ề
ễ
ệ
ọ
ố
ồ
ộ
ợ
Ῥ
ῶ
–
—
―
‘
’
“
”
•
․
‧
′
※
⁺
₫
€
℃
ℓ
⅓
⅔
Ⅰ
Ⅱ
Ⅲ
Ⅳ
→
↔
∙
∞
∼
≪
≫
⋅
⌜
⌟
③
Ⓐ
□
▲
△
▴
▵
▶
○
●
★
☆
☎
☏
♡
♥
⟪
⟫
⸱
、
。
々
〈
〉
《
》
「
」
『
』
あ
い
う
え
お
か
が
き
ぎ
く
け
こ
さ
ざ
し
じ
す
ず
そ
た
だ
ち
つ
て
で
と
ど
な
に
ね
の
ひ
ぶ
へ
べ
ま
み
め
も
や
ゆ
ょ
よ
ら
り
る
れ
ろ
わ
を
ん
ア
ィ
イ
ゥ
ウ
カ
キ
ギ
サ
シ
ジ
ス
ズ
ソ
タ
チ
ッ
テ
ト
ド
ナ
ニ
ネ
ノ
ビ
フ
ブ
ベ
ミ
ム
メ
ャ
ュ
ユ
ョ
ヨ
ラ
リ
ル
レ
ン
ヶ
・
ー
ㄱ
ㄷ
ㅁ
ㅅ
ㅇ
ㅎ
ㅜ
ㅠ
ㆍ
㈔
㈜
㎏
㎖
㎜
㎞
㎡
㎿
㫕
䄄
䄙
一
丁
七
三
上
下
不
丕
世
丙
丞
並
中
丸
丹
主
乃
久
之
乏
乘
乙
九
亂
事
二
于
五
井
亜
亞
亡
交
亨
京
亭
亮
人
仁
仇
今
介
仏
仙
代
令
以
仰
仲
件
任
伊
伐
休
会
伯
伸
位
住
佐
佑
何
佛
作
佩
佳
使
來
侍
依
侮
侯
侵
便
俁
促
俊
俗
保
信
修
倂
倉
倒
倡
倭
假
偉
健
傅
傑
備
傳
僉
像
僖
價
僻
儀
儁
億
儇
儉
儒
允
元
兄
充
兆
先
光
克
兌
免
兒
党
兢
內
全
兩
兪
八
公
六
共
兵
具
典
兼
内
冉
冊
再
军
冬
冽
凱
出
分
刊
刑
列
刘
初
判
別
利
制
刺
刻
則
前
剖
副
劇
劉
劍
力
功
加
助
労
勇
勉
勒
動
務
勝
勞
勢
勤
勳
勸
勾
化
北
匡
匹
区
區
十
千
午
半
卍
卓
協
南
博
卜
卞
印
却
卿
厓
厚
原
厦
厭
参
參
友
双
反
叔
取
受
古
句
只
可
台
史
右
司
合
吉
吊
同
名
后
吏
向
君
含
吳
吾
呂
呑
周
呪
味
命
和
咨
咲
咸
哀
品
哉
員
哥
哲
唐
商
問
啓
善
喆
喜
喪
喬
單
嗣
嘆
嘉
器
嚴
四
回
因
团
固
国
圃
圈
國
園
圖
團
土
在
圭
地
址
坂
均
坊
坐
坤
坧
坪
垓
垠
埈
城
域
執
培
基
堂
堤
堪
堯
報
場
塔
塢
塾
境
墓
墨
壁
壄
壤
士
壹
壽
変
复
夏
外
多
夜
夢
大
天
太
夫
央
失
奇
奈
奉
奎
奏
奔
奥
奧
奭
女
奴
好
如
妃
妙
妥
始
姑
姓
委
姙
姜
姪
姫
姬
姸
威
娘
娜
娥
婁
婦
媛
嫡
嬪
子
孔
字
孚
孝
季
学
孫
學
宅
宇
守
安
宋
完
宏
宗
官
定
宜
宝
実
客
宣
宥
宮
宰
家
容
宿
寅
密
富
寒
寔
寛
察
寢
實
寧
審
寫
寬
寶
寺
寿
封
将
將
專
尉
尊
對
導
小
少
尔
尙
尚
尤
就
尹
尺
尼
尾
局
居
屋
屍
展
屠
履
屬
屯
山
岡
岩
岸
峰
島
峻
崇
崎
崔
崗
嵋
嵐
巖
川
州
工
左
己
巳
巾
市
布
希
帖
帝
帥
師
席
帳
帶
常
幕
幡
干
平
年
幸
幽
幾
广
庁
広
庄
店
庚
府
度
庭
庵
庶
康
庸
庾
廉
廟
廢
廣
廳
延
建
式
弐
弓
弘
弟
張
强
弼
彈
彌
当
彙
彛
彠
形
彦
彩
彫
彬
彰
役
征
律
後
徐
得
從
御
復
微
徳
徵
德
徹
徽
心
必
忍
志
応
忠
思
性
怨
恋
恒
恨
恩
恭
悊
悌
悟
悤
悲
悳
悼
惇
惟
惠
惡
想
愍
意
愚
愛
感
愼
慈
慎
慕
慘
慜
慶
憬
憲
應
懌
懷
懽
懿
成
我
戚
戦
戰
戴
戶
戸
房
所
手
才
打
承
技
抑
抗
拔
招
拜
括
持
指
振
捷
推
掾
提
搜
摩
撫
播
據
擧
攝
支
收
改
攻
放
政
故
效
敍
敎
敏
救
敞
敦
敬
整
敷
數
文
斌
斎
斗
斬
斯
新
斷
方
於
施
旅
旋
旌
族
旗
日
旨
早
旭
旺
旻
旼
旽
旿
昆
昇
昊
昌
明
昏
易
昔
昕
星
映
春
昭
昰
昱
昴
昶
時
晉
晋
晙
晥
晩
普
景
晳
晶
智
暋
暗
暦
暻
曄
曆
曙
曲
書
曹
曺
曾
最
會
月
有
服
朔
朗
望
朝
木
未
末
本
朱
朴
李
村
杓
杜
条
杰
東
松
析
枓
林
果
枝
柏
柔
柱
柳
査
栃
栄
栖
栗
校
株
根
桂
案
桐
桑
桓
梁
梅
條
梪
棟
棣
森
棺
植
検
椵
楊
楚
楢
楨
業
極
榕
榮
榴
構
槿
樂
樓
樞
権
樹
樺
橋
機
檢
權
次
欲
欽
歌
正
步
武
歷
歸
死
殊
殘
殤
段
殷
殿
母
毒
毛
氏
民
氣
水
氷
永
求
汎
汕
汗
汝
江
池
決
沂
沃
沈
沓
沔
沙
沛
沢
河
沸
治
沿
法
波
泥
注
泫
泰
泳
洋
洗
洙
洛
洞
津
洪
洵
洹
活
派
流
浅
浙
浚
浜
浦
浩
浪
海
消
涉
涓
淑
淡
淮
深
淳
淵
淸
清
渋
渕
渙
渚
渠
渡
渤
港
渰
湖
湘
湧
湯
源
準
溥
溪
溫
溱
溶
溷
滋
滎
滿
漁
漆
漑
演
漕
漠
漢
漱
漸
潘
潛
潤
潽
澂
澄
澈
澠
澤
澮
澯
濟
濬
濱
灌
灣
火
炅
炫
炯
炳
烈
烏
烘
焄
無
然
煐
煕
煙
煜
煥
煦
熊
熙
燁
燕
營
燦
燮
爭
爵
父
爾
片
牙
牛
牟
牧
物
特
犬
状
狂
狐
猶
獅
獨
獲
獻
玄
玉
王
珅
珉
珍
珠
珥
現
理
琛
琪
琯
琴
瑅
瑗
瑛
瑜
瑞
瑟
瑤
瑪
瑭
璄
璘
璜
璟
璡
璨
環
璿
瓦
甄
生
産
用
甫
田
由
甲
申
电
男
町
界
留
畜
畯
畵
畿
疏
疑
病
療
発
登
發
白
百
皇
皓
皮
益
盛
盟
監
盧
目
直
相
省
眉
眞
真
督
睦
睿
瞳
瞻
知
石
研
破
硏
碑
碧
碩
磾
礪
礼
社
祇
祉
祐
祖
祚
神
祠
祥
祭
祿
禍
禎
福
禔
禦
禧
禪
禮
禰
禳
禶
禹
秀
私
秉
秋
科
秘
秦
稅
程
種
稱
稷
稿
穆
積
穎
穗
穡
穴
究
空
突
窓
窩
竇
立
章
端
競
竹
笠
符
第
等
筑
答
策
筵
箕
管
節
範
篆
築
簫
簾
米
粤
精
糿
紀
約
紅
紋
純
級
素
紡
索
紫
紹
絃
組
結
絡
給
統
絶
綎
經
継
綠
維
綱
綾
緑
緖
線
緣
練
縣
總
織
繼
續
结
维
置
署
羅
美
義
羲
羽
翁
翊
習
翔
翰
翼
耀
老
考
者
耆
而
耕
耘
耳
聖
聯
聰
聲
聿
肅
肖
肥
肩
育
胡
胤
能
脚
脩
膳
臂
臣
臧
臨
自
至
致
臺
與
興
舊
舍
舒
航
船
良
色
艾
芝
芥
花
芳
苔
苞
若
苩
英
茂
范
茶
荃
草
荒
荷
莉
莊
莢
菅
菊
菩
華
菱
菴
萬
萱
葆
葉
著
葛
董
葬
蒼
蓄
蓉
蓮
蔘
蔚
蔡
蔣
蕃
蕭
薛
薨
薩
薰
藎
藝
藤
藥
藩
藪
藻
蘇
蘭
虎
處
虛
號
蛙
蜀
蜂
融
血
行
衍
術
衙
衛
衞
衡
表
衿
袁
被
裁
裔
裕
裵
裶
複
褒
襲
西
要
見
規
覚
親
覺
觀
视
角
解
言
計
訓
記
訥
訪
許
評
詢
試
詩
誘
語
誠
誤
說
課
誼
調
論
諧
諫
諮
諱
諸
謙
講
謝
謠
謨
譙
譚
警
議
護
譽
讀
變
讓
谷
豊
豐
象
豪
豫
貌
貞
財
貢
貪
貫
貴
貼
資
賜
賢
賣
賤
贈
贊
赤
赫
起
超
越
趙
足
路
跱
躍
車
軍
軫
軾
載
輓
輔
輝
輪
輯
輿
轉
辛
辨
辯
辰
農
辺
近
迦
迪
述
送
逅
选
通
速
造
逢
連
進
逵
逸
遇
遊
運
道
達
違
遠
遣
遷
選
遺
遼
邂
邊
邏
邑
邕
那
邦
邱
邸
郁
郎
郞
郡
部
郭
郵
都
鄒
鄕
鄜
鄧
鄭
鄴
酒
醍
醐
醫
采
釋
里
重
野
量
金
釜
釩
鈞
鈴
鉄
鉉
鉗
銀
銅
銓
銳
鋥
錄
錘
錦
錫
鍊
鍵
鍼
鍾
鎌
鎔
鎬
鎭
鎮
鎰
鏞
鏡
鐘
鐵
鐸
鑑
鑴
钦
钧
長
門
閉
開
閏
間
閔
閘
関
閣
閥
閭
閻
閼
闊
闖
闡
门
阮
防
阿
陀
际
降
限
陜
陞
院
陣
陰
陳
陵
陶
陸
陽
隆
隊
隋
階
際
隣
隨
險
隱
雄
雅
集
雇
離
難
雨
雩
雪
雲
雷
電
需
震
露
靈
靑
青
靖
靜
非
靡
革
韋
韓
音
韶
響
項
順
領
頭
頼
額
顕
願
顥
顯
顾
風
飛
食
飮
飯
養
餘
館
首
香
馨
馬
馮
駉
駐
駒
駿
騎
騰
驛
驥
驪
马
骅
骐
骥
骨
體
高
鬪
鬱
魏
魚
魯
鮮
鳳
鴨
鴻
鵞
鶴
鹿
麗
麟
麥
黃
黎
黑
黒
默
黜
點
黨
鼎
齊
齋
齡
龍
龐
龕
龜
가
각
간
갇
갈
갉
감
갑
값
갓
갔
강
갖
같
갚
개
객
갠
갤
갯
갰
갱
갸
갹
걀
걔
거
걱
건
걷
걸
검
겁
것
겅
겉
게
겐
겔
겜
겟
겠
겨
격
겪
견
결
겸
겹
겼
경
곁
계
고
곡
곤
곧
골
곰
곱
곳
공
곶
과
곽
관
괄
괌
광
괘
괜
괭
괴
괸
굉
교
구
국
군
굳
굴
굵
굶
굼
굽
굿
궁
궂
궈
권
궐
궜
궤
귀
귄
귈
규
균
귤
그
극
근
글
긁
금
급
긋
긍
기
긱
긴
길
김
깁
깃
깅
깊
까
깍
깎
깐
깔
깜
깝
깟
깡
깥
깨
깬
깰
깼
꺼
꺽
꺾
껀
껄
껌
껍
껏
껐
껑
께
껫
껴
꼈
꼬
꼭
꼰
꼴
꼼
꼽
꽁
꽂
꽃
꽈
꽉
꽝
꽤
꾀
꾐
꾸
꾹
꾼
꿀
꿇
꿈
꿉
꿋
꿍
꿔
꿨
꿰
뀌
뀐
뀔
뀜
뀠
끄
끈
끊
끌
끓
끔
끗
끝
끼
끽
낀
낄
낌
낍
나
낙
낚
난
날
낡
남
납
낫
났
낭
낮
낯
낱
낳
내
낵
낸
낼
냄
냅
냇
냈
냉
냐
냑
냔
냘
냥
너
넉
넋
넌
널
넓
넘
넛
넜
넝
넣
네
넥
넨
넬
넴
넵
넷
넸
녀
녁
년
념
녔
녕
녘
녜
녠
녤
노
녹
논
놀
놈
놉
농
높
놓
놔
놨
뇌
뇨
뇰
뇽
누
눅
눈
눌
눔
눠
눴
뉘
뉜
뉠
뉴
늄
늉
느
늑
는
늘
늙
늠
능
늦
늪
늬
니
닉
닌
닐
님
닙
닛
닝
다
닥
닦
단
닫
달
닭
닮
닳
담
답
닷
당
닿
대
댁
댄
댈
댐
댓
댔
댕
더
덕
던
덜
덞
덟
덤
덥
덧
덩
덫
덮
데
덱
덴
델
뎀
뎁
뎃
뎅
뎌
뎠
뎨
뎬
도
독
돈
돋
돌
돔
돕
돗
동
돤
돼
됐
되
된
될
됨
됩
됭
됴
두
둑
둔
둘
둠
둡
둥
둬
뒀
뒤
뒨
뒬
뒴
뒷
뒸
듀
듈
듐
드
득
든
듣
들
듬
듭
듯
등
디
딕
딘
딛
딜
딤
딥
딧
딨
딩
딪
따
딱
딴
딸
땀
땄
땅
때
땐
땔
땠
땡
떠
떡
떤
떨
떳
떴
떵
떻
떼
뗀
뗄
뗏
뗐
또
똑
똔
똘
똣
똥
뚜
뚝
뚤
뚫
뚱
뛰
뛴
뛸
뜨
뜩
뜬
뜯
뜰
뜸
뜻
띄
띈
띠
띤
띵
라
락
란
랄
람
랍
랏
랐
랑
랗
래
랙
랜
랠
램
랩
랫
랬
랭
랲
랴
략
량
러
럭
런
럴
럼
럽
럿
렀
렁
렇
레
렉
렌
렐
렘
렙
렛
렝
려
력
련
렬
렴
렵
렷
렸
령
례
롄
로
록
론
롤
롬
롭
롯
롱
뢰
뢴
뢸
룀
룅
료
룟
룡
루
룩
룬
룰
룸
룹
룻
룽
뤄
뤘
뤼
뤽
륀
륑
류
륙
륜
률
륨
륭
르
륵
른
를
름
릅
릇
릉
릎
리
릭
린
릴
림
립
릿
링
마
막
만
많
맏
말
맑
맘
맙
맛
망
맞
맟
맡
매
맥
맨
맬
맴
맵
맷
맸
맹
맺
먀
머
먹
먼
멀
멈
멋
멍
메
멕
멘
멜
멤
멧
멩
며
멱
면
멸
몄
명
몇
모
목
몫
몬
몰
몸
몹
못
몽
뫼
묀
묄
묘
묜
무
묵
묶
문
묻
물
뭄
뭇
뭉
뭍
뭐
뭔
뭡
뮈
뮌
뮐
뮤
뮬
므
믈
미
믹
민
믿
밀
밈
밉
밋
밌
밍
및
밑
바
박
밖
반
받
발
밝
밞
밟
밤
밥
밧
방
밭
배
백
밴
밸
뱀
뱃
뱅
뱉
뱌
버
벅
번
벌
범
법
벗
벙
벚
베
벡
벤
벨
벱
벳
벵
벼
벽
변
별
볍
볐
병
볕
볜
보
복
볶
본
볼
봄
봅
봇
봉
봐
봤
뵈
뵐
뵘
뵙
뵤
부
북
분
불
붉
붐
붓
붕
붙
뷔
뷜
뷧
뷰
뷴
뷸
브
븐
블
비
빅
빈
빌
빔
빕
빗
빙
빚
빛
빠
빡
빤
빨
빳
빴
빵
빼
빽
뺀
뺏
뺐
뺑
뺨
뻐
뻑
뻔
뻗
뻘
뻤
뻥
뻬
뼈
뽀
뽐
뽑
뽕
뾰
뿌
뿍
뿐
뿔
뿜
뿡
쁘
쁜
쁠
쁨
삐
삔
사
삭
산
살
삶
삼
삽
삿
샀
상
새
색
샌
샐
샘
샛
생
샤
샥
샨
샬
샴
샵
샷
샹
섀
서
석
섞
선
설
섬
섭
섯
섰
성
세
섹
센
셀
셈
셉
셋
셌
셍
셔
션
셜
셧
셨
셰
셱
셴
셸
소
속
솎
손
솓
솔
솜
솝
솟
송
솥
쇄
쇠
쇤
쇼
숀
숄
숍
숏
숑
수
숙
순
술
숨
숫
숭
숯
숱
숲
숴
쉈
쉐
쉑
쉔
쉘
쉬
쉰
쉴
쉼
쉽
슈
슌
슐
슘
슛
슝
스
슨
슬
슭
슴
습
슷
승
시
식
신
싣
실
싫
심
십
싯
싱
싶
싸
싹
싼
쌀
쌈
쌉
쌍
쌓
쌤
쌩
써
썩
썬
썰
썸
썹
썼
썽
쎄
쎈
쎙
쏘
쏙
쏜
쏟
쏠
쏴
쐈
쐐
쑤
쑥
쑨
쑹
쒸
쓰
쓱
쓴
쓸
씀
씌
씨
씩
씬
씸
씹
씻
씽
아
악
안
앉
않
알
앓
암
압
앗
았
앙
앞
애
액
앤
앨
앰
앱
앳
앴
앵
야
약
얀
얄
얇
얌
얏
양
얕
얘
어
억
언
얹
얻
얼
얽
엄
업
없
엇
었
엉
엊
엌
엎
에
엑
엔
엘
엠
엡
엣
엥
여
역
엮
연
열
엷
염
엽
엿
였
영
옅
옆
예
옌
옐
옙
옛
옝
오
옥
온
올
옭
옮
옳
옴
옵
옷
옸
옹
옻
와
왁
완
왈
왑
왓
왔
왕
왜
왠
왱
외
왼
요
욕
욘
욜
욤
용
우
욱
운
울
움
웁
웃
웅
워
웍
원
월
웜
웠
웡
웨
웩
웬
웰
웸
웹
웽
위
윅
윈
윌
윔
윕
윗
윙
유
육
윤
율
윰
윳
융
윷
으
윽
은
을
읊
음
읍
읏
응
의
이
익
인
일
읽
잃
임
입
잇
있
잉
잊
잎
자
작
잓
잔
잖
잘
잠
잡
잣
잤
장
잦
재
잭
잰
잼
잿
쟁
쟈
쟌
쟝
저
적
전
절
젊
점
접
젓
정
젖
제
젝
젠
젤
젬
젭
젯
져
젼
졌
졍
조
족
존
졸
좀
좁
종
좋
좌
좡
좨
죄
죈
죠
죤
주
죽
준
줄
줌
줍
줏
중
줘
줬
쥐
쥔
쥘
쥠
쥣
쥬
쥰
쥴
즈
즉
즌
즐
즘
즙
증
지
직
진
질
짊
짐
집
짓
징
짖
짙
짚
짜
짝
짠
짢
짤
짧
짬
짭
짱
째
쨋
쨌
쨔
쩌
쩍
쩐
쩔
쩡
쪼
쪽
쫄
쫑
쫒
쫓
쭈
쭉
쭐
쭝
쭤
쮠
쯔
쯕
쯤
찌
찍
찐
찔
찜
찡
찢
찧
차
착
찬
찮
찰
참
찹
찻
찼
창
찾
채
책
챈
챌
챔
챕
챗
챘
챙
챠
챤
처
척
천
철
첨
첩
첫
청
체
첵
첸
첼
쳄
쳅
쳇
쳉
쳐
쳑
쳣
쳤
초
촉
촌
촐
촘
촛
총
촨
촬
최
쵸
추
축
춘
출
춤
춥
춧
충
춰
췄
췌
취
츄
츠
측
츨
츰
층
치
칙
친
칠
침
칩
칫
칭
카
칵
칸
칼
캄
캅
캇
캉
캐
캔
캘
캠
캡
캣
캥
캬
커
컥
컨
컫
컬
컴
컵
컷
컸
컹
케
켁
켄
켈
켐
켓
켜
켤
켭
켰
코
콕
콘
콜
콤
콥
콧
콩
콰
콴
콸
쾌
쾨
쾰
쿄
쿈
쿌
쿠
쿡
쿤
쿨
쿰
쿱
쿵
쿸
쿼
퀀
퀄
퀘
퀜
퀴
퀵
퀸
퀼
큐
큘
큠
크
큰
클
큼
키
킥
킨
킬
킴
킵
킷
킹
타
탁
탄
탈
탐
탑
탓
탔
탕
태
택
탠
탤
탬
탭
탯
탰
탱
터
턱
턴
털
텀
텁
텃
텅
테
텍
텐
텔
템
텝
텟
텡
텨
텼
톈
토
톡
톤
톨
톰
톱
통
퇴
툉
툐
툠
툥
투
툭
툰
툴
툼
퉁
퉈
퉜
튀
튄
튕
튜
튠
튤
튬
트
특
튼
튽
튿
틀
틈
틉
틋
티
틱
틴
틸
팀
팁
팃
팅
팈
파
팍
팎
판
팔
팜
팝
팟
팠
팡
팥
패
팩
팬
팰
팸
팹
팻
팽
퍼
퍽
펀
펄
펌
펍
펑
페
펙
펜
펠
펨
펩
펫
펭
펴
편
펼
폄
폈
평
폐
포
폭
폰
폴
폼
폽
퐁
푀
푈
표
푸
푹
푼
풀
풂
품
풉
풋
풍
퓌
퓨
퓰
퓸
프
픈
플
픔
픕
피
픽
핀
필
핌
핍
핏
핑
하
학
한
할
함
합
핫
항
해
핵
핸
핼
햄
햅
햇
했
행
햐
햔
햘
향
헀
허
헉
헌
헐
험
헙
헛
헝
헤
헥
헨
헬
헴
헵
헷
헹
혀
혁
현
혈
혐
협
혔
형
혜
호
혹
혼
홀
홈
홉
홋
홍
화
확
환
활
홧
황
홰
횃
회
획
횟
횡
효
후
훅
훈
훌
훔
훗
훙
훠
훤
훨
훼
휘
휜
휠
휩
휴
휼
흄
흉
흐
흑
흔
흘
흙
흠
흡
흥
흩
희
흭
흰
히
힉
힌
힐
힘
힙
힛
힝
李
％
＇
（
）
，
／
１
：
？
ｍ
～
｢
｣
･
𑀕
𑀥
𑀫
𥘺
##h
##e
##o
##r
##y
##틀
##랜
##틱
##은
##랄
##라
##다
##수
##로
##서
##는
##부
##겔
##린
##이
##력
##위
##와
##창
##자
##들
##4
##5
##3
##6
##관
##기
##산
##과
##성
##도
##에
##지
##를
##영
##1
##8
##2
##제
##획
##9
##직
##교
##원
##E
##M
##S
##류
##가
##억
##적
##전
##을
##희
##숙
##I
##L
##터
##금
##새
##형
##릴
##리
##장
##승
##권
##회
##타
##워
##s
##c
##l
##a
##O
##7
##루
##킹
##야
##친
##역
##발
##양
##으
##스
##의
##동
##아
##공
##시
##난
##일
##째
##인
##련
##노
##안
##군
##옥
##순
##코
##그
##조
##트
##메
##룬
##석
##n
##g
##주
##건
##설
##단
##엔
##상
##팀
##사
##르
##신
##하
##였
##며
##문
##립
##마
##추
##어
##진
##보
##소
##략
##임
##포
##면
##했
##우
##준
##해
##경
##호
##0
##개
##량
##정
##비
##악
##팁
##년
##약
##항
##니
##넨
##고
##객
##말
##치
##효
##세
##무
##간
##데
##론
##토
##대
##청
##학
##선
##삼
##궁
##더
##나
##버
##광
##흥
##탑
##당
##N
##름
##되
##병
##득
##실
##차
##촌
##식
##규
##디
##움
##A
##F
##컵
##업
##었
##열
##든
##누
##천
##게
##만
##쇼
##카
##화
##국
##파
##티
##칸
##J
##찬
##래
##착
##즈
##중
##육
##홈
##페
##통
##여
##테
##랑
##크
##틴
##슈
##락
##민
##유
##까
##v
##t
##혁
##웅
##집
##출
##질
##작
##법
##감
##합
##철
##려
##료
##한
##판
##받
##심
##등
##처
##척
##허
##두
##북
##김
##씨
##오
##복
##퇴
##후
##먼
##드
##결
##섭
##요
##던
##체
##냥
##올
##림
##픽
##플
##죄
##분
##표
##명
##월
##운
##쿠
##젠
##T
##율
##퍼
##술
##계
##족
##섬
##견
##콘
##골
##돌
##R
##울
##베
##번
##너
##망
##냈
##애
##편
##펠
##구
##빛
##런
##숍
##생
##물
##센
##P
##씩
##용
##습
##레
##브
##방
##태
##미
##령
##절
##됐
##행
##촉
##함
##프
##격
##활
##켜
##봐
##볼
##롯
##텔
##칙
##웨
##거
##책
##본
##음
##재
##현
##연
##입
##닫
##룡
##셔
##앤
##놀
##외
##겨
##펑
##러
##K
##네
##배
##축
##점
##종
##황
##품
##칠
##롤
##반
##귀
##완
##p
##예
##k
##각
##익
##협
##m
##머
##팅
##탈
##냐
##곤
##송
##케
##키
##길
##쟁
##할
##백
##막
##내
##졌
##룹
##i
##증
##낭
##온
##강
##피
##멧
##널
##속
##겠
##패
##못
##총
##턴
##b
##슬
##클
##팝
##j
##ㆍ
##십
##글
##쁘
##남
##참
##녀
##d
##돈
##응
##침
##곶
##께
##휘
##살
##G
##평
##초
##쪽
##필
##폰
##덕
##왕
##담
##홍
##채
##웠
##져
##쿨
##젝
##컴
##깡
##걸
##농
##른
##쉬
##된
##았
##츠
##혀
##있
##D
##맹
##폐
##읍
##뷰
##B
##얏
##헌
##찌
##택
##돼
##뿐
##급
##취
##란
##독
##모
##V
##W
##극
##럼
##특
##션
##녹
##바
##퀴
##달
##능
##둔
##닉
##록
##챔
##언
##넥
##딩
##u
##불
##목
##럽
##별
##릭
##확
##털
##써
##봉
##릿
##액
##룩
##빈
##징
##갔
##왔
##깨
##줄
##캠
##C
##벌
##납
##곡
##렘
##투
##섀
##렐
##례
##앙
##혼
##손
##셰
##즘
##옹
##렀
##슴
##꾸
##듭
##빙
##찰
##매
##므
##박
##⋅
##쳐
##홀
##밀
##컨
##텐
##톨
##묵
##엽
##탠
##롬
##블
##람
##켓
##검
##눔
##빠
##님
##맞
##윤
##같
##멘
##될
##근
##낸
##측
##w
##콩
##슨
##렌
##숲
##났
##틸
##저
##몽
##좌
##е
##н
##쓰
##U
##픈
##킨
##탁
##링
##잡
##따
##f
##멕
##탐
##렵
##녔
##а
##р
##с
##т
##в
##о
##향
##훈
##셀
##팩
##륙
##펜
##랙
##색
##갑
##즌
##켰
##닝
##환
##최
##날
##욱
##히
##핀
##벵
##X
##녜
##튼
##헬
##염
##때
##쿤
##융
##앗
##딕
##혔
##곽
##옌
##쑤
##푹
##칭
##탄
##논
##샹
##∙
##답
##꾼
##딘
##풍
##첩
##흠
##핑
##딸
##균
##톰
##싱
##없
##흐
##혜
##푸
##H
##톤
##웃
##욕
##젤
##쇄
##밤
##뢰
##z
##뽀
##끼
##끌
##겼
##충
##킬
##켈
##럿
##헀
##쿄
##셉
##률
##렸
##룽
##륜
##짜
##렉
##츨
##벨
##념
##럭
##웰
##벽
##잠
##죠
##셋
##겹
##얀
##듀
##뉴
##딜
##췄
##셨
##범
##델
##뇌
##줘
##봄
##쌍
##쇠
##넣
##몬
##돋
##변
##랍
##존
##닛
##숨
##콕
##텀
##엘
##갈
##벤
##얼
##낙
##ē
##ù
##빵
##느
##밍
##곳
##첨
##ل
##ع
##و
##ي
##ر
##ا
##ن
##괄
##죽
##돔
##끔
##뱅
##램
##험
##렛
##랭
##알
##륭
##커
##찾
##ط
##빅
##뻔
##냉
##펙
##럴
##윙
##헨
##홉
##듯
##맨
##컷
##튜
##돗
##뷔
##엌
##잉
##힐
##몰
##춘
##텍
##넌
##롱
##썬
##팡
##큼
##층
##튀
##괴
##찮
##랗
##븐
##윈
##샤
##톡
##퀜
##멀
##혈
##x
##칼
##숫
##춤
##붙
##흡
##욜
##쳤
##맥
##렴
##덜
##팜
##깐
##뷜
##엠
##셴
##Q
##ý
##암
##ö
##릉
##윅
##뮤
##것
##톈
##휴
##쿌
##둥
##봇
##팔
##줬
##훙
##딥
##폭
##쉈
##닐
##앉
##뎌
##싸
##밴
##껑
##즉
##뒀
##혐
##∼
##짐
##셸
##곰
##윽
##섰
##뇨
##컬
##멸
##ム
##ー
##ル
##Y
##뜨
##캐
##짖
##빌
##켄
##랫
##폼
##ο
##λ
##ι
##τ
##ε
##ί
##α
##쉐
##겐
##혹
##렬
##ú
##롭
##먹
##밥
##탕
##섯
##뤄
##샌
##슷
##칫
##튠
##잔
##킥
##㎞
##잎
##놓
##딪
##빼
##샷
##됨
##넬
##값
##숭
##랩
##밖
##굴
##썸
##훔
##넷
##ő
##릅
##Z
##겸
##Ž
##q
##콜
##솔
##앨
##둘
##않
##맛
##떠
##엄
##힌
##쓸
##궐
##톱
##í
##핵
##뭉
##쥬
##멜
##첼
##꼽
##둑
##읽
##ó
##짱
##흔
##늘
##닷
##뤼
##π
##δ
##ό
##υ
##ς
##퍽
##끄
##펴
##묘
##템
##덴
##헤
##썽
##츄
##덤
##칩
##펀
##랐
##찍
##˼
##뎀
##꿀
##닥
##♡
##좋
##엑
##쓴
##떼
##웍
##ò
##꽃
##끈
##폴
##접
##힘
##썼
##풀
##닌
##뮈
##긴
##㈜
##긍
##끝
##퐁
##즐
##ồ
##큐
##팍
##솜
##킴
##콤
##텟
##믹
##뤘
##늠
##Ú
##섹
##멩
##압
##잘
##툴
##펄
##꼴
##큰
##뵤
##앞
##콥
##ệ
##렇
##숴
##늙
##얹
##꼼
##멤
##é
##궤
##빴
##빨
##웬
##뚜
##꼭
##윗
##ợ
##빗
##쿼
##봤
##닭
##햄
##킷
##쩌
##춰
##è
##흑
##옴
##푼
##셜
##퓨
##짓
##벳
##셈
##캬
##ز
##م
##캡
##ë
##룸
##엿
##굼
##낱
##쌀
##슘
##냅
##챗
##씬
##깝
##졍
##쟈
##찔
##▲
##밸
##쿱
##쥔
##엉
##ｍ
##줍
##눈
##뻐
##덥
##밈
##넛
##튽
##랴
##떡
##슐
##붕
##눌
##훼
##녁
##땅
##낌
##딛
##랠
##콰
##な
##か
##챈
##넘
##ä
##맙
##팬
##탱
##탤
##뜩
##쑥
##뱃
##흘
##팽
##뜰
##챘
##씀
##⅔
##헴
##훌
##Ⅱ
##캄
##왜
##쩔
##눠
##뀌
##딤
##갓
##뒤
##と
##ち
##엥
##렁
##옸
##또
##ю
##и
##к
##ъ
##뮬
##햘
##ḥ
##윳
##띠
##쭉
##～
##쁜
##お
##둡
##퀼
##샘
##늪
##쁨
##줌
##빔
##ì
##룰
##ب
##녠
##삭
##핸
##갱
##м
##윌
##뚝
##뭇
##늄
##룻
##ọ
##륵
##뿍
##쥐
##꿈
##엇
##뻬
##잖
##믈
##촐
##갤
##낼
##뭐
##㎏
##ぶ
##こ
##쉼
##굿
##㎖
##밌
##б
##й
##х
##껏
##떳
##훤
##л
##д
##́
##듬
##る
##た
##쉘
##콧
##웁
##픔
##랬
##쯔
##빤
##렷
##탓
##떤
##눅
##괘
##턱
##だ
##궈
##콴
##켐
##갯
##ه
##ج
##팎
##똑
##앰
##높
##슝
##핍
##싼
##よ
##ら
##ひ
##り
##뻑
##꼬
##힝
##캘
##텁
##κ
##η
##댕
##샨
##댓
##냑
##닙
##깍
##뿌
##녘
##у
##њ
##ц
##륑
##맘
##옙
##벡
##큘
##쥣
##뒨
##툼
##の
##쩍
##풋
##샵
##벅
##앵
##밋
##똘
##첸
##놈
##꽁
##쉽
##볜
##욘
##덟
##녕
##ī
##あ
##や
##댄
##궜
##ω
##μ
##ν
##흉
##릇
##뛰
##탭
##´
##깔
##И
##≫
##솟
##벗
##쯤
##떨
##촬
##뜯
##볶
##탯
##춧
##⁺
##롄
##퀸
##덩
##뢴
##떻
##み
##♥
##붐
##딧
##잭
##젯
##넉
##낄
##냄
##땀
##뱀
##챙
##ầ
##뚤
##멍
##г
##끗
##넝
##굉
##왈
##꼈
##륨
##팃
##핏
##→
##㎡
##얄
##쩐
##푀
##퀘
##°
##で
##ま
##텨
##à
##꿨
##ņ
##š
##옵
##몸
##×
##퓰
##¼
##뉘
##똥
##슛
##â
##Ⅰ
##ょ
##う
##そ
##べ
##쾨
##쫓
##잼
##ã
##뜸
##셱
##å
##쾌
##엣
##귄
##몫
##룀
##뚱
##쿵
##렝
##숑
##펌
##짝
##ç
##푈
##췌
##짠
##랏
##맵
##쭈
##졸
##헛
##뱉
##텼
##ñ
##℃
##줏
##ة
##뫼
##덱
##ु
##ह
##म
##्
##द
##뿡
##릎
##샴
##æ
##툰
##옷
##및
##틈
##늉
##ч
##э
##ü
##잇
##ß
##뼈
##뿜
##낫
##θ
##ά
##씹
##킵
##캣
##댁
##덧
##쳉
##컹
##윰
##죈
##쏘
##썩
##볍
##ℓ
##뇰
##ρ
##が
##わ
##ễ
##뷴
##씸
##딱
##Š
##쳑
##ㅎ
##꿔
##퉜
##벼
##껴
##삐
##됭
##χ
##뽕
##ㅇ
##쳣
##د
##ح
##з
##뻤
##놨
##륀
##뢸
##탰
##똣
##씻
##흙
##έ
##γ
##뎠
##빚
##퉈
##い
##さ
##じ
##뮐
##쑹
##끓
##샬
##깎
##ø
##꿉
##뇽
##ă
##낯
##싶
##ğ
##뎅
##꾹
##ず
##꺼
##딴
##뉠
##냔
##걷
##뭄
##놉
##힙
##ヨ
##ネ
##ッ
##タ
##ा
##ब
##र
##큠
##낀
##ʁ
##∞
##맡
##앓
##깥
##폈
##팟
##ت
##뀜
##놔
##맸
##곧
##둠
##챌
##많
##밭
##ộ
##픕
##촨
##벙
##텃
##옛
##µ
##쎈
##뾰
##햇
##휠
##녤
##굽
##댐
##곱
##낵
##튬
##ê
##ㅜ
##겁
##붓
##옆
##횟
##헐
##밑
##ど
##뜻
##몄
##쿰
##갚
##챠
##겟
##뉜
##샛
##젓
##둬
##き
##깊
##훠
##왁
##틋
##앱
##뿔
##쵸
##꼰
##찜
##뀔
##ћ
##츰
##씽
##⌟
##³
##슭
##콸
##듈
##ć
##깟
##넜
##괸
##칵
##삿
##ㅅ
##찐
##죤
##엎
##펫
##봅
##댔
##낮
##셍
##뮌
##싹
##멋
##캔
##ł
##п
##я
##늬
##웹
##뗄
##Д
##Г
##멈
##쳄
##뎁
##☎
##ả
##텝
##눴
##볕
##ˈ
##ɾ
##탬
##몇
##돕
##쏙
##ề
##듐
##짚
##힛
##됩
##섞
##²
##땠
##먀
##ư
##ơ
##퓌
##˘
##ゆ
##△
##ï
##넴
##캉
##띤
##퀄
##씌
##ё
##ậ
##맷
##툥
##윕
##옳
##닿
##★
##꿋
##좁
##س
##も
##쌓
##왑
##깅
##ΐ
##ı
##빡
##삽
##け
##뱌
##핌
##쌈
##걱
##し
##텡
##왼
##뤽
##넸
##ū
##쁠
##찼
##옐
##ā
##쭝
##쉑
##ɪ
##뜬
##샥
##뽐
##펭
##ん
##ろ
##ж
##팰
##앳
##쫑
##헙
##つ
##ṛ
##젼
##늦
##튿
##잓
##뎬
##ソ
##レ
##イ
##ユ
##쨋
##렙
##휼
##깃
##𑀕
##𑀥
##솥
##핫
##ی
##ش
##뒴
##꺽
##쥘
##팸
##ベ
##ラ
##룅
##쨔
##횡
##퉁
##カ
##컥
##얻
##퀀
##긋
##썹
##א
##ר
##뻘
##뵈
##싯
##ô
##빳
##팠
##컫
##®
##뷸
##û
##ㅠ
##욤
##ȳ
##퓸
##ы
##흄
##촘
##툠
##툉
##σ
##떵
##ύ
##툭
##뀐
##쨌
##ン
##テ
##ィ
##ス
##ざ
##ạ
##ك
##덞
##뒸
##Ⅳ
##ш
##़
##ी
##न
##늑
##⅓
##젬
##챤
##낍
##묜
##엡
##ャ
##ビ
##ト
##맺
##ド
##ウ
##ኪ
##ና
##귤
##☆
##캇
##벚
##웩
##즙
##쥠
##햐
##걀
##갰
##㎿
##땡
##묻
##１
##웜
##쉰
##좡
##틉
##ث
##솝
##へ
##쫒
##덮
##쮠
##밧
##쭤
##볐
##쌤
##룟
##ニ
##メ
##シ
##ョ
##ゥ
##뗀
##썰
##뵐
##툐
##뎃
##됴
##캅
##갖
##뒬
##딨
##얘
##겅
##쳅
##셌
##ь
##앴
##끽
##밟
##꽂
##홰
##サ
##짢
##좀
##쏠
##ş
##숀
##팈
##Т
##Р
##ミ
##ュ
##ジ
##を
##め
##て
##왓
##㎜
##삶
##ዘ
##ር
##ላ
##ን
##ድ
##ῶ
##껫
##팥
##랲
##뀠
##ズ
##넓
##ブ
##リ
##ố
##ね
##ț
##ہ
##뎨
##く
##れ
##Ś
##쩡
##잣
##슌
en
id
idx
##pe
##it
##rt
##ce
##en
##art
##ct
##or
##ity
##ect
##ord
##ject
st
##ype
ent
type
word
##bject
end
start
entity
##el
##ou
##ue
##ent
##id
##ence
re
##ab
##our
##lue
su
##abel
##ource
##uid
guid
klue
label
object
sent
source
v1
subject
sentence
##ik
wik
##in
##ra
##rain
train
##ER
PER
##RG
ORG
##er
##ia
##dia
##ipe
wikipe
wikipedia
##ee
##at
20
19
##on
##에서
##ree
##itree
wikitree
##ion
##으로
per
rel
##ation
no
relation
or
org
##했다
10
of
##OH
##lo
##mp
##loy
emp
##loyee
employee
de
11
POH
dev
12
##mb
##mber
me
member
13
201
18
##하였
15
14
16
##었다
members
##하고
##이다
17
##AT
DAT
##OC
##op
employees
top
LOC
200
대한
##하는
21
##ate
##학교
22
25
23
30
##le
24
26
##하였다
있다
27
28
한국
##하여
##으며
29
##0년
31
##부터
##에게
##am
##es
199
##9년
tit
title
##에는
##민국
##ter
##민주
##00
##8년
지난
대한민국
##6년
##tern
##리아
##ames
al
names
##ternate
alternate
##위원
##7년
##까지
32
경기
##한다
##5년
광주
198
##2년
대표
##혔다
##4년
##면서
##la
함께
밝혔다
선수
##1년
##스트
04
##리그
##통령
서울
06
03
위해
05
01
##3년
02
##대학교
대통령
이후
있는
pla
##회의
place
일본
##시아
미국
프로
지역
민주
##민주당
FC
00
33
07
##되었다
##지만
35
##들이
##ig
34
리그
축구
##적인
##랜드
##ea
##19
조선
36
37
##하기
38
##ers
date
##으나
의원
##ol
##았다
39
자유
41
##적으로
40
후보
국민
##ead
##하며
##qu
##라고
프랑
통해
##주의
head
##arters
##quarters
headquarters
197
##위원회
##장을
국가
정부
##라이
##하게
##igin
origin
10월
##rth
##스의
42
##이자
bi
birth
감독
소속
##장은
##였다
##불어
1월
50
당시
3월
43
44
시즌
##라는
더불어
8월
##대표
##들의
##레이
##리스
##에서는
##남도
194
1세
12월
##로나
196
##공사
기록
11월
195
47
2세
##는데
그는
되었다
45
##ar
2월
9월
##교육
7월
활동
##그룹
##화국
4월
5월
##20
48
지원
##되어
46
더불어민주당
에서
현재
시작
했다
국제
##이며
아이
말했다
현대
08
09
사회
##사를
##란드
49
부산
##되었
52
6월
이어
##FA
##하면서
##ro
제1
대한민국의
우승
##들을
51
##겠다
##사업
삼성
53
##한국
자신
55
위한
##광역
교육
##했고
##ous
전라
##광역시
##장이
##하였고
##ed
##nd
사업
독일
##의당
프랑스
배우
##한국당
##25
참여
##리가
##il
##먼트
중국
60
열린
운영
세계
참석
54
##리고
대해
코로나
##24
정치
##일에
것으로
그의
56
##와의
출신
##21
##23
57
관계
이용
59
##28
진행
사이
##들은
##26
##29
##정부
##du
sp
##기를
##ouse
##됐다
프리
##에도
##27
spouse
방송
NOH
##니아
##터테
##duct
58
pro
국회의
이날
대학
##센터
##리에
product
##인먼트
##졌다
##터테인먼트
##ag
##리를
##36
##15
##30
개최
러시아
연구
제국
##48
##38
##39
##17
같은
62
##35
##37
##기에
##었던
##18
군수
따라
##BS
61
##16
##나라
아들
장관
##46
##45
라고
##이스
문화
##47
##10
##의회
##49
##olle
##상을
##방송
전라남도
##ues
시장
##40
colle
등을
##agues
colleagues
대학교
##주시
##등학교
##ic
영국
중앙
##재인
관련
##스타
63
##인민
##페인
##스는
##도록
자유한국당
이름
회장
##본부
위원
한다
민주당
##BC
##대로
등이
라이
천황
이적
이사
##대학
##스터
64
##했다고
설립
SK
문재인
##자로
##했으며
김영
이탈
##력을
이번
##20년
##운동
국회의원
선거
추진
전남
##억원
##그램
독립
66
비롯
공동
인천
##위를
193
한편
##ound
##58
##스를
70
##50
그룹
코로나19
##59
##운데
이탈리아
##화당
영화
육군
##르크
100
##66
1일
##57
경기도
아르
65
발표
##기업
가운데
##었고
##기술
전국
found
스타
이라고
##우스
founded
##약을
브라
##들과
것을
##르트
##지원
스페인
##연구
것이
##리는
##기도
바이
##프트
총장
가수
다시
##명이
##56
10일
##an
UE
UEFA
##77
또한
최고
##공화국
대상
통합
##하지
##사가
##드리
그러
##99
##학자
모두
교수
##88
##발전
67
선정
##복지
때문
사람
##들에게
##명을
그리고
멤버
##연합
이상
##산업
##은행
##지를
68
##31
데뷔
##동차
##천시
##스와
전쟁
##비아
이승
기업
의해
##성을
##하다
김대
##체육
하는
##피언
##회를
실시
##된다
자신의
##ing
타이
따르
##60
##렸다
사장
태어
##북도
25일
롯데
##기관
##하였으며
##원은
시민
미래
##과의
##정을
##ents
하나
18일
3세
##안전
2019년
5일
par
##80
김종
만들
##버지
parents
##34
##식을
관계자
##70
광주광역시
##이트
##동당
##났다
김정
등의
##였던
사용
000
26일
우리
11일
74
따르면
4일
공화국
##관리
2020년
69
2011년
72
24일
방문
##90
2일
국회
##하자
가장
##11
씨는
교황
##사회
##ath
공격
20일
17일
많은
##al
##스가
챔피언
있었다
3일
사건
오후
월드
21일
오스트
이에
주장
##로서
##교통
김대중
들어
71
아니
2012년
27일
FI
경제
올해
하였다
동안
##스크
2016년
공개
로마
최초
##하겠다
23일
수상
##대를
190
된다
##명의
28일
출연
행정
##44
2017년
##정보
전북
9일
##되는
##전을
##리즈
16일
그러나
알려
192
##자가
##지방
##법원
계획
##76
성공
상황
야구
새로
여성
2010년
경기에서
##is
K리그
80
##78
##되고
191
2008년
##96
##98
##공단
death
결과
##22
##했던
73
씨가
76
레이
##군의
대회
공식
아버지
처음
2009년
##인민공화국
활약
##문화
##경기
##고등학교
##덜란드
네덜란드
##이고
##회사
30일
유럽
##시장
13일
국가대표
22일
사실
으로
##글랜드
중심
참가
제2
##연맹
##33
##대회
75
##스코
19일
15일
포함
##이었다
##한다고
대구
##55
##시에
##자인
경찰
라며
##디오
LG
잉글랜드
##림픽
7일
대전
##부장
##나다
14일
##트남
이라
##사는
##국민
학생
##선을
예정
12일
6일
여수
진출
출전
##제로
사망
##원을
받았다
2014년
KB
다른
정의당
##화를
2019
구성
##제를
박정
##엔터테인먼트
##러스
국내
라는
때문에
결정
프리미
##항공
다양
##위원장
##리오
받아
있으며
정책
하고
##로부터
##14
##레스
##축구
##교육청
##전에서
##소년
##개발
##무원
78
보건
왕국
차지
화순
##과학
##특별
클럽
##군은
대상으로
8일
노무
제작
결혼
경남
##당의
29일
고려
다양한
캐나다
##68
##로스
##79
##냈다
새로운
시절
있도록
체결
##지는
##번째
루이
자이
##ch
노무현
김성
베트남
##머니
번째
임명
##리카
##데스
79
77
개발
통일
이하
##이었던
##치를
2013년
폴란드
##통합
특히
##도시
브라질
다이
알렉
##지역
##협회
2018년
프로그램
지방
전문
조지
최근
지난해
지도
이승만
적극
프리미어
창당
여자
항공
##지사
기획
마이
엔터테인먼트
일부
##ri
##장으로
##비스
85
산업
##권을
##나이
##되었고
##드리드
2006년
FIFA
##기로
##메이
88
마드리드
도시
바르
여러
##자를
왕조
있던
83
82
2015년
2007년
자이언
MBC
평가
##의를
##왕후
뉴욕
예비
국가대표팀
선수로
오는
그리스
음악
자이언츠
##hil
역임
##워드
##신당
국민의당
아시아
조성
##경제
수도
마르
세리에
카를
##왔다
일본의
메이
##전자
##운드
국립
##관광
##었으며
##민주주의
90
주관
##대의
##후보
생활
##ren
81
발생
프리미어리그
##부의
##전에
##보다
특별
##서관
미국의
##시키
물리
총선
##성군
이용섭
다음
목포
환경
##75
공산
임시
주민
투수
황제
##정치
최종
##hild
##웨이
2004년
84
pol
이를
인사
##운동가
##부르크
##재단
골키
전했다
주요
골키퍼
지속
##hildren
결국
역사
이끌
전투
##서는
##13
86
##원이
##에서도
광산
포르
##다고
##금융
박정희
사랑
##철도
KBO
울산
##인이
##우리
##경찰
##th
챔피언스
##세의
되어
조직
2002년
89
이동
##단체
87
결승
##흥군
2000년
연구원은
children
돌아
바른
##장에서
월드컵
경상
필리
##69
##양시
비롯한
모든
스웨
안전
##골을
당선
졸업
##이사
스웨덴
##대에
##트로
##당을
학교
##장과
91
올림픽
##도로
오스트리아
##이나
##의원
##진흥
##지고
##sid
##했지만
지지
선출
위치
이재
즉위
참석한
챔피언스리그
각각
##사단
2005년
##되었으며
업무
##교회
##인으로
##티드
resid
residence
받은
시리즈
제공
##FC
광주시
구단
분데스
어려
어머니
분데스리가
연맹
조선민주주의
92
것은
오전
원내
크리스
##가와
189
조선민주주의인민공화국
생각
에드
##안을
기관
직접
##부를
##티나
라이온
있어
중화
##43
##병원
KBS
##12
##인의
##개의
##학과
인해
전달
##스탄
##바이
유튜
##지로
##스턴
##사로
##베르
연합
유명
##다가
##사의
##하였으나
가능
작곡
##하이
##포츠
##08
##독교
김영삼
93
설명
##제가
##하던
##했으나
##나이티드
국방
음력
화순군
공무원
영향
##he
##스키
보건복지
매출
앞으로
필요
기대
##분기
1년
모습
취임
##왕의
1990년
국토
보고
##움을
##카이
2001년
기술
##선수
또는
##직을
##건설
유나이티드
##마트
##식품
대신
자동차
청년
헨리
확산
##스로
여수시
계속
데이
내용
마련
##티아
##으로부터
2년
이정
포천시
##이라는
##실에서
2003년
과학
두산
우수
페르
##당이
##000
이라며
박근
선언
##자리
##하면
188
94
영광
영입
인터
제주
##수를
경우
##기가
##장에
31일
1987년
96
수원
##톨릭
기원
마지
상대로
이유
##로는
어린
이라는
##시켰
거쳐
베어
보도
블루
선발
지휘
##가는
##당은
##환경
1995년
역할
입단
만나
미드
이미
전주
##대책
것이다
기여
##야수
노력
동아
연방
요구
찾아
확보
98
김현
북한
유니
출마
하지만
##세계
1997년
이름을
비판
하였
##통신
소속사
활동을
마지막
동생
이루
##시설
##사령
베이
준비
##미래
101
사진
이다
협력
1998년
1988년
아니라
성장
인정
청와
##안군
4세
강화
수비
아나
##기의
가톨릭
와이
##위에
##자치
##투스
프로듀
##에른
##임을
##디어
##즈의
##드로
110
민주평
97
레알
영업
판매
##다는
바이에른
포르투
건강
대응
종합
초대
총리
##부가
##인이다
알렉산
나이
한화
##니다
경영
베네
언론
증가
행사
스위
출범
##라마
##일랜드
##계를
타이거
미드필
역시
영암
##라인
우승을
미드필더
소비
##총리
독립운동가
기간
인민
##자의
등에
받고
사무
슈퍼
승리
윌리
프란
##노동
##임스
109
1996년
분야
##ef
##BA
등과
정당
확대
##65
##국의
##심을
의원은
박근혜
공화당
기독교
세르
##32
##증권
이사장
청와대
99
샤를
운동
한나라
##42
##베이
태어났다
광산구
국무
아내
이전
인물
##원의
1989년
보수
##자는
##67
##성이
##시즌
##비치
##협의회
105
1999년
계약
도쿄
소련
시행
##가리
##으로서
보건복지부
됐다
소설
##41
##케이
##았고
##으로써
인도
##89
##정책
##되면서
##테르
##쳤다
##하기로
CJ
일제
##라운드
##자원
##공항
##음을
103
의원이
제국의
95
구충
##트리
구축
의장
평화
##금을
##선거
##중앙
##두고
구충곤
게임
결성
크로
##동안
##문을
##하기도
비롯해
윌리엄
2차
고흥군
면서
변호
있었
##체스터
107
공작
노동
등장
브랜드
플레이
해남
##인은
기획재
동시에
유지
지명
추가
피해
##이라고
##지션
공연
##도를
##인을
##트를
##투자
에드워드
기념
출시
##부는
##레일
##셀로나
위원장
원내대표
맨체스터
진보
해외
##프로
중심으로
예비후보
국토교통
SM
만에
발전
토론
##정에서
##청장
108
##icy
5세
금융
이는
##철수
참석했다
##ther
모델
복귀
않았다
예산
요한
재위
호남
##로벌
##나는
##활동
120
150
반대
##사에서
##개월
104
186
1992년
bri
경쟁
아우
제임스
중소
##자동차
##지에
policy
##efing
briefing
변경
비례
팀의
##군이
##학생
##슬라
강진
##스에
바르셀로나
계약을
민족
인수
1986년
해양
##산시
##점을
##통합당
없는
##st
##여자
##ily
관리
뮌헨
요청
이해
활성
##이라
##시스
102
출신의
기원전
앨범
자리
해당
##스티
관계자는
SBS
가족
앞서
헝가리
##서를
##원으로
##조합
##치로
정권
##인트
##메달
fam
other
그녀
논란
모스크
예상
지금
##는다
##도서관
##해서
119
family
감염
과거
농업
전망
##너지
후보로
아르헨
국왕
시간
##수는
##이익
##어난
모스크바
아르헨티나
안철수
올라
##해야
##ib
고객
부인
##르는
##마크
relig
생산
연기
정동
##리지
##일보
아나운
기자
김재
##도군
서울특별
##라이나
최초로
검찰
기존
두고
엘리
##과를
##시오
##치고
관광
명예
보내
하이
##조선
삼성전자
새정치
씨와
정보
##위로
300
가졌다
기타
대비
더욱
드래
의혹
##도의
##가이다
##프리카
118
1993년
만들어
처음으로
군사
본격
에이
은퇴
이야
제외
##et
##의로
##포르
##처럼
1980년
목포시
바른미래
기획재정부
NBA
계열
레드
이끄
작품
전남도
##리우스
##버트
이끄는
KT
가문
개선
베르
송귀
##력이
##주교
##하려
##정당
##평군
2020
130
송귀근
연속
##회장
##단을
##드는
지원을
6세
공공
덴마크
되었고
설치
일으
후반
히로
##드라
106
건설
외교
##부와
##이는
##적을
##리히
##루수
##버스
충청
홍보
##인규
대표이사
프랑스의
인천광역시
##연구소
기반
마을
음반
이글
##기는
문화체육
고용
단체
순천시
않고
##95
##민당
개최했다
보여
시티
앞두고
주최
##제의
##무부
1991년
민주평화당
나타
드러
##가를
##전문
##시간
##대한
##디아
##여명이
대표는
대통령이
서울특별시
3년
글로벌
분석
187
최초의
비례대표
Ch
김일
박재
총재
파리
##수가
##사와
##겼다
##부장관
TV
관한
맞아
유벤
중요
청소년
회의
독일의
영상
좋은
##가의
##했는데
116
한나라당
문화체육관광
없다
##니어
##치오
##감을
##에서의
##민주연합
김정은
영암군
1차
KI
노르
포지션
##제국
##식회사
##지방법원
안정
투자
트로
##수산
##르고
##TV
1946년
와이번
크게
138
185
1979년
위치한
포르투갈
그가
발매
아메
혁신
##수영
##자와
##시픽
##페이
##미르
##란다
140
같이
농림
리처
민생
수석
수립
스포츠
오늘
유일
지적
##부대
##97
##셔널
따른
아일랜드
연고
##연구원
예정이다
역할을
득점
문제
오스
인스타
##피아
1994년
1984년
나섰
담당
드라마
센터
창단
##이어
##세기
##만원
대통령의
인스타그램
요시
채널
하여
##비전
##국제
113
공격수
프로듀서
개인
올랐
##어로
##연금
유튜브
갖고
권오
리버
언급
활용
##세를
180
대한항공
아나운서
끝에
높은
대안
보유
애니
예방
이선
트레이
##om
##스에서
##단의
##법인
##갔다
111
1985년
사회적
의견
##텔레
160
1982년
기록했다
메이저
##레일리아
되는
로스
성남
요미
전동
전략
##었으나
##드를
있다고
담양
##소프트
선수이다
오스트레일리아
라이온즈
AFC
남편
내각
아닌
제3
획득
##기획
감독으로
김영록
국정
수행
스코
이스
전체
##로동당
##성과
##공화당
##협력
112
계승
나가
스튜
시대
제기
확정
##가로
##니스
##치는
##오프
대표가
정부의
미래통합당
경성
등으로
패배
##라스
##라노
##리노
##예술
사이에서
존재
##수의
##시민
##군을
##구하고
발표했다
앞으로도
강원
김동
내년
노래
대변
신청
##라디
##지가
##사인
##나가
126
##과학기술
##시켰다
스위스
국토교통부
4년
St
공모
그를
기준
세종
스트
트윈
##소를
##총장
프로젝
고구
김태
마리아
명이
이시
##시마
##메라
##두환
##iv
114
리처드
요미우리
##노동당
##사에
##거나
##축산
184
설명했다
강조
오른
중인
질병
찰스
##관을
##호를
##정에
115
제2차
바른미래당
권오봉
고구려
대부
맡았다
바란다
브리
선보
의료
전년
최선을
회원
117
125
170
행정안전
베어스
영업이익
전두환
##서발전
##진을
##us
부문
없이
이듬
정규
희망
##리스트
##예프
##왕이
감사
규모
노동당
##ling
##as
##트럴
020
후보가
영광군
by
동구
바오
센트럴
에어
우크
##기구
158
감독이
교통
대선
밴드
순천
작가
탈당
확인
##시코
##학원
##누스
##베스
##품을
129
148
##축구연맹
##어진
##간의
040
010
사업을
포지션은
리버풀
전동평
우크라이나
거두
바로
오르
이슬
주인
합류
후에
##관에서
##리의
##학을
##화가
선수가
모습을
해남군
이선재
NC
건축
나치
뒤를
산하
소재
##re
##이던
##루스
##르타
##식이
147
060
030
050
070
시작했다
작곡가
크로아
##텔레콤
나폴
자리를
합의
##라의
##린다
##종의
##연금공단
크로아티아
고양시
남자
선임
이러
##틀랜드
##야구
##누리
##분을
##행정
##모토
1945년
이름으로
계획이다
##lings
박주
박윤
양키
올렸다
이종
제안
텔레
##되지
##생활
128
127
교육감
과학기술
이듬해
YG
sib
개혁
곡성군
나오
니콜
서비스
실패
연주
오브
전해
조사
현장
##상공
##고를
##고등
##벤처
한국전
##메이션
질병관리
siblings
GS
근무
사령
심상
있을
##회에서
##세가
##료를
##았으며
1세의
전라북도
외야수
유격
제출
##원에서
##야마
##혁명
##닉스
##했다는
##하였는데
179
통일민주당
노르웨이
가진
맡고
불가
불구하고
승격
유진
유재
이기
임대
##승을
##동서발전
##마스
##해양
##학년
##ff
124
한국동서발전
경기를
공산당
##축산식품
이슬람
가입
교체
마케
보이
이와
주도
최우
1983년
500
The
레오
마리
매우
명칭
서로
서구
지배
##스토
##공업
##싱턴
사회주의
최고의
김종식
업무협
어린이
김일성
이러한
내셔널
소유
수준
않은
피아
해체
##부에
##하라
##받았다
159
##하는데
대통령은
SK텔레콤
농림축산식품
박윤국
김용
달성
떠나
신익
아틀
이인
##사관
##르도
지난달
영국의
소설가
신익희
남아
지냈다
최대
핀란드
##자유
##트의
##주는
##NA
##으로는
068
008
주장했다
##경찰청
FA
가지고
김원
동료
상대
지정
##회가
##사이
##비드
##되자
##었지만
##만에
##씨의
##드의
##남준
##투아
139
149
048
1950년
공개했다
경상북도
나경
나주시
만주
블라디
소방
이지
현지
##회에
##ay
##구에
##연대
##머스
1981년
038
058
018
028
시작으로
방송인
김종필
지도자
활성화
Un
본명
신세계
왕비
있었던
장남
##장의
##공산
##인과
##비시
##중학교
137
유격수
과정에서
승리를
알바
예선
전반
합병
##스카
##노스
##tion
183
##ard
중화민국
경험
되고
발견
전통
정식
제이
해군
##지와
##무를
##었는데
##계획
1948년
심상정
런던
부상
상태
소개
스티
워싱턴
이수
있고
지낸
차례
최진
##os
##라도
##도가
##조의
조선로동당
포함한
물리학
임시정부
애니메이션
관심을
명현
발언
세이
의미
이명
인권
정은
직원
##주택
##단은
##업을
##민의
##구를
122
146
지역사회
감독을
논의
복지
소프트
유로
##스부르크
##항만
##받은
##철도공사
세르비아
변호사
유벤투스
주인공
5년
강경
그리
기부
김병
도쿠
상임
상무
축하
##주년
##받아
##함으로써
136
165
알려져
중화인민공화국
엘리자
KIA
바오로
질병관리본부
명현관
공군
넘어
방역
집중
통한
포항
핵심
##이기도
##들에
##회는
##스테
##시티
##비를
##식에는
##혁신
##표를
##격을
##ical
필리핀
##대책본부
먼저
반영
장성
창원
호텔
##트워
##실을
123
133
운영하는
선거에서
토론토
나섰다
새누리
완도군
유근
조정
창업
##터스
##주를
##NS
한국시
알려진
박재규
광양시
정상
직후
행복
협약
##티노
##브리
##았던
121
2010
155
1973년
자신이
##억원을
이성
토트
하이트
##일러
##반기
아이유
사이에
경남대학교
플레이오프
아틀레
남부
라디오
시설
위하여
초기
후원
##가족
##조사
##니지
202
176
정부가
##라이더
태어난
경상남도
스코틀랜드
블라디미르
가면
노태
많이
불법
빅토
상하이
시청
실적
##라엘
##자들이
##공동
##코리아
##상이
##렀다
135
대표팀
조선인민
참석해
방문해
공무원연금공단
##사령부
나서
동양
래퍼
로버트
소통
스틸
신동
일반
정종
통치
프레
##ool
##지도
##시대
##시켜
##앤젤
##텐츠
스페인의
민생당
로스앤젤
##벤처기업
토트넘
마무
박일
양평군
온라인
창립
친구
파이
##인다
##물을
##남기
166
168
2세의
프로젝트
MC
개그
김준
김해
사퇴
선생
알리
외국
이강
종료
##틀러
##라를
##원에
##리어
##석을
##신을
##파크
##평가
##스트로
지역의
정부는
1949년
1960년
정치인
강진군
부진
일자리
재정
혐의로
##동생
##패를
1920년
156
145
아들인
것이라고
생활을
이스라엘
대부분
도쿠가와
유근기
광양
달러
동맹
입장을
전시
정남준
주전
창설
혁명
후계
##관은
##의료
##군과
##어나
##중에
134
기록을
천황의
##국민당
IOC
아들이
아프리카
안재
원정
이래
확진
##관이
##단이
##보건
##보고
##데이
##대가
##차를
##복을
유명한
영향을
매출액
담양군
멕시코
바티
사상
싱어
아래
의정부
재판
하루
##부인
##했을
##우는
##게임
178
##한다는
왕국의
대안신당
하이트진
로스앤젤레스
고등학교
김진
마사
물론
오사
재직
재난
추정
태평
홈런
##서울
##대는
##슈타
##tt
##네스
##종합
##있는
##국민회의
정동영
가면라이더
박일준
등록
소상공
아스
아시
여름
연세
점령
주로
##3리그
##도르
##치아
##세이
##통상
##히토
157
169
##하고자
2009
1970년
##하다가
어려운
국방부
트로트
##트워크
골을
식품
신한
엔씨
연결
오리
홍남기
##리크
##시는
##단에
##마을
##니엘
##분에
##롭게
11번
현재의
나경원
5개
명의
준우
##지컬
##직원
##아시아
##행을
167
있다는
##라이터
출신으로
체결했다
##chool
인터뷰
이유로
예비후보는
문화체육관광부
마무리
네이
도입
메시
부르
신인
정몽
조약
책임
클라
트럼
회사
##전히
자유당
소속으로
수비수
과학기술정보
강점
김수
김구
다카
도움
바탕
박성
세웠
스마트
시리아
적용
합동
홈페이
훈련
##에르
##량을
##여대
##습니다
##배우
##ur
##end
143
175
1955년
최고위원
엔씨소프트
강력
걸쳐
교장
신종
에도
이란
주식회사
출생
칼리
##군에
##정의당
##대비
##티코
##송라이터
감독은
1954년
현대자동차
부산광역시
역사상
올랐다
스튜디오
새누리당
싱어송라이터
관내
사태
시도
에스
역대
예술
올리
제시
콘스탄
판단
##령을
아들로
산업통상
왕조의
행정안전부
한국전력
산업통상자원
8세
AC
II
군민
김승
김규
동부
민간
신규
업체
제품
최다
코치
펠리
해결
##자이다
##리코
##시킨
##카고
##므로
##iation
131
181
144
142
250
046
026
자유민주당
##라이언
브라운
아틀레티코
JT
공정
마음
마스크
첼시
초청
하며
히틀러
##ad
##감독
036
016
006
물리학자
데이비드
##항만공사
각종
고민
공직
김상
내야수
벨기에
보호
선교
시카고
신라
신문
아마
자회사
전환
주목
철도
##정이
##정의
132
경기에
066
056
076
1963년
이탈리아의
##드리히
유튜버
타이거즈
엘리자베스
0으로
K3리그
만큼
반도
발렌
발탁
배출
불교
사고
스토
종교
최형
추천
하다
##부문
##이센
##지의
##트는
##상의
##르바
##화학
##크로
##명으로
##담을
2013
171
1978년
1967년
아시아나
블루윙
이루어
알렉산드
새정치국민회의
##고등법원
##공산당
개그맨
하이트진로
SS
군인
군주
당부
박사
암살
유치
이병
집행
천주교
통과
투입
한전
황교
##의장
##NK
##티스트
##씨는
##애인
##연을
##im
007
자유민주연합
프로그램을
SNS
개막
남구
득표
만든
부터
소녀
수여
신성
신안군
아직
인재
파견
##라트
##산을
##소방
##업체
##퍼니
##계에
##함에
##릭스
##저스
164
대통령과
009
1974년
배우이다
김정일
베이징
최우수
황교안
In
김기
방탄
백종
자체
전기
카이
행사를
##제는
##리와
##하도록
##진보
##비스를
##거래
##itical
2007
049
069
039
059
019
029
프로이센
시즌을
열린우리
설립된
사실을
농촌
대공
때까지
뮤지컬
블랙
에게
이런
입당
장제
주재
##우드
##키아
153
1976년
코로나바이
수도권
중소벤처기업
스트라이
바탕으로
방탄소년
3개
IS
개편
그린
다하겠다
뜻을
박우
박능
선택
세력
아랍
않는
육성
이르
자치
케이
한신
향후
##시를
##마니아
##더스
##카드
##민족
##명과
##ious
##un
1968년
참여한
프리드리히
##억원으로
##진흥원
와이번스
노태우
박능후
aff
거부
것에
광고
귀국
귀족
대동
목표
부임
영토
장군
중이다
측은
퍼시픽
헌법
헤르
##ov
##로의
##기념
##원식
##트트
##니오
##없이
##렇게
177
057
##iliation
수상했다
political
해양수산
##메달을
religious
농림축산식품부
affiliation
4개
김민
둘째
몽골
박영
부정
부족
사우
사후
선포
손흥
점검
정신
제조
중단
챌린
청주
청나라
키예프
플로
합당
##자체
##가가
##마르
##보험
##토스
##만의
##드레
##너스
##독립
한국남
047
067
037
017
027
장관은
챔피언십
##지방경찰청
강원도
태평양
강인규
남양
대책
대법원
되었으며
못한
부여
사장은
수출
스테
아키
열고
장학
제도
후임
##과는
##진영
##되며
##통일
##올림픽
##혜선
154
16세
한국철도공사
##00만
지역구
조선대학교
1940년
religion
드래프트
영업이익은
스트라이커
CE
NH
끝난
막부
밀라노
반란
소식을
솔로
수사
신민당
싱글
전직
전주시
체육
최경
출판
프라
하인
후지
힘을
##ck
##스케
##대상
##게이
##레디
##ir
2012
163
후보는
에서는
##사업을
정치인이다
사실이
트럼프
최형식
루이스
발굴
법률
야마
에너지
원을
장기
최영
하노
회장은
##성훈
##제프
##트가
##소에
##청년
##즈니
##점으로
2008
##회의실에서
2세는
##되었으나
어려움을
##선수권
JTBC
the
기본
표현
##역을
##스템
##보를
141
민주노동당
1977년
제1차
관련해
공산주의
충청북도
소상공인
아시아나항공
블루윙즈
검토
공유
관심
노벨
달리
로드
민중
반발
비상
아사
연예
우려
제5
차이
팀을
하지
회장이
##리포
##리나
##아가
##실장
##카오
##명은
##황후
##널드
##덕왕
2011
2018
광주여대
프리메라
텔레비전
백종원
코로나바이러스
1위
4차
긴급
김홍
대우
모집
미디어
예능
중에
취업
후쿠
##서비스
##지영
##가인
##장관
##사스
##였으며
##경영
##화점
##국이
##용진
##바르
##랫폼
선수는
1세는
방송된
설립한
1로
AS
가지
경희
고소
공급
남북
물러
비틀
이때
장악
##라드
##로를
##리로
##타르
##스퍼
##스포츠
##조를
##하에
##어를
##년간
##카와
##구는
077
활동하고
아이돌
우승에
##iss
베네딕
지적했다
의견을
손흥민
갈등
고양
기초
김연
동기
등은
루마니아
모리
시스템
위반
은행
지자체
터키
파울
현역
##가포르
##타이
##으면서
##사건
##개혁
##질랜드
서울대학교
소속의
위원회
알려졌다
##ist
K리그1
페르난
국무총리
이명박
SP
검사
나선
뉴질랜드
마크
법무
오토
이은
이것
전신
체포
평양
##라가
##로드
##전선
##식에
##카데
##테네
##ie
174
2000
후보를
##ich
##자로서
선정됐다
##체육회
타이틀
총선에서
중요한
강조했다
최진실
오사카
간의
교류
그레
까지
디지
법무부
본부장
선제
양성
우선
원래
유고
유통
입학
정의
주제로
집권
친일
##이치
##일스
##돌프
##프리
173
280
015
1972년
참여했다
통합진보
태어나
##투자증권
이글스
고용노동
펠리페
1군
개정
공천
김광
보스턴
비난
상승
싱가포르
완료
이주
이혼
인테르
지급
##위는
##과대학
##도는
##으면
##시로
##시스코
##데르
##규모
##씨가
##쿠스
##웨어
##거리
1세가
##센터에서
이적하였다
##특별자치
##베르토
##ivers
정은경
바티칸
과학기술정보통신
감소
골든
김우
나온
농협
레코
마우
방영
불리
아동
알아
약속
예수
이로
인디
정세
존슨
특수
필라
##em
##52
##전드
##형발전
##단으로
##였고
##추진
##포스
##호선
##정우
##항을
##당에
##천년
##프가
##반도
##날레
민주정의당
1964년
1958년
실시했다
소비에
##노동조합
진보신당
Univers
아스널
가르
기상
김경
나누
대중
레전드
루스
리더
맞이
미군
보컬
보인다
승인
신우
이뤄
통산
파트
행동
##이드
##자력
##자들의
##선대
##래프트
##베르크
##검찰
지역을
감독의
1959년
국제공항
차지했다
필요한
중소기업
김준성
##카데미
HD
김창
마오
박상
본선
사과
성과를
영어
젊은
출장
투표
##서에
##적이
##73
##72
##루시아
##사무
##쇼핑
##법을
##받고
##프레
##초등학교
152
162
220
의원과
1975년
2세가
스타크
전문가
카를로스
7세
가져
내려
디자인
리가
못하고
미나
밀란
밝히
백작
앙리
에르
이영
있게
처리
캐릭
텍사스
하겠다
##수아
##64
##63
##61
##성에
##원과
##원군
##시청
##문트
##마이
##론을
##대와
##대에서
##나의
##쿠라
##졌고
##YP
##ian
065
031
055
005
1971년
##연합회
주관하는
CEO
##리포니아
##검찰청
Jo
school
문성
박헌
베이스
불러
서명
연습
자격
제4
조국
중구
지내
캠페인
회복
효과
훗날
##부로
##르의
##하마
##보증
##세자
##식으로
##만을
##io
##농업
##훈련
2015
151
210
045
035
025
075
1961년
발표한
##시키고
지속적으로
오스만
연세대학교
##ended
신우철
박헌영
1위를
BNK
att
구매
도로
동참
루카
매년
매각
바꾸
받는
밝혀
부모
사법
새천년
아모
에버
왕족
작업
혹은
##다이
##ST
##74
##71
##주가
##해주
##당한
##누엘
##현석
161
240
사회당
문화방송
공동대표
보도했다
사진을
##활동을
##여자대학교
감염증
준우승
방탄소년단
캐릭터
schools
attended
김명
도르트
문제를
밀려
보다
선고
신한국당
아티스트
연장
열었다
유엔
이집
전에
펼쳐
##산물
##장군
##타를
##트니
##학의
##파트
##퍼스
##레옹
##길을
##ub
##델피아
##하였지만
후보자
프랑크
기록하며
1951년
진행했다
##지원청
졸업하고
논란이
유일한
브리핑
11번가
산업통상자원부
김규식
박우량
베네딕토
필라델피아
Al
건립
건국
경선
리니지
뮤직
반면
보낸
상생
시상
않았
왕위
요코
의하여
이범
인공
인한
자문
조별
지분
##ev
##수와
##들로
##들도
##54
##성은
##안보
##정원
##만이
##베르트
##물관
##미디어
260
310
320
상황에서
마이클
제외한
유재석
최경환
스타크래프트
계기로
김지
김인규
너무
네트워크
노회
되면서
매체
변화
시장은
안양
알고
없었다
우주
지키
취소
콘텐츠
페이스
풋볼
프랭
##51
##62
##기간
##과이
##동발전
##운영
##런스
230
선수이자
서울시
FC의
국민당
프랑수아
1969년
현대차
그녀의
이야기
나폴레옹
한국시리즈
하인리히
소비에트
노회찬
가을
건의
게이
겨울
그대로
극복
낙선
도움을
동방
보였다
선도
스파
안토
오클
유시민
이대
있었고
정기
조건
체험
캘리포니아
클래
플랫폼
협의
황후
휴스턴
##53
##아이
##공원
##단과
##경기에
##봉사
대표와
대표적인
서울고등법원
시즌에
공동으로
공화국의
하였고
피아노
조선인민군
발렌시아
한국남동발전
거의
경북
구혜선
그동안
김석
대체
도착
도중
말레이
못했다
불과
서부
수요
스카이
윤치
이외
이웃
이마트
인구
전개
지냈
촬영
카페
항공사
힙합
##ey
##수로
##위대
##가지
##회견
##인데
##상황
##되기
##CC
##향을
1000
061
민주자유
1952년
활동했다
대해서
##대회에서
전달했다
SM엔터테인먼트
아우구
빅토리아
중소벤처기업부
디지털
새천년민주당
2군
CF
간담
공헌
근로
근거
등에서
메리
부분
북구
살해
쇼와
시기에
여론
유관
응원
인근
자연
장병
체코
표창
활약을
##od
##기경
##안에
##사고
##어들
##호는
##학회
##오는
##계가
##브라
182
270
국민의
080
1939년
크리스티
##슬라비아
인스타그램에
반도체
당부했다
1부
DJ
가까
그해
나라
단독
보루시아
부시
약칭
왔다
인증
적이
정교회
조승
조현
총괄
파주시
한성
##자이자
##기와
##에너지
##의약
##석희
##상에
##우라
##호텔
##율을
##됨에
한국의
시작하였다
사람이
구성된
바른정당
공공기관
트윈스
양키스
사령관
고용노동부
EX
JYP
강기
거주
교회
녹색
목소
빌리
빌헬
신천
의한
이같
제네
지시
지하
차남
취약
##제르
##정은
##세로
##AM
##오스
##태영
##바일
##뮤니
208
2006
228
한국인
현재는
러시아의
전라남도교육청
잉글랜드의
역임했다
환경부
이끌어
대변인
소프트웨어
마우리아
페이스북
J리그
격려
글을
기능
말을
맡아
분리
소장
아무
아베
여운
운행
이회
조카
종목
추대
침공
클리
토마스
해방
했으나
##로도
##지에서
##전이
##코스
##신교
##호가
##왕은
2017
290
있는데
리그의
1956년
1957년
대학교에서
한다고
유고슬라비아
인테르나
Mar
강남
고문
김형
동원
디즈니
라인
버스
북부
불리는
사례
새롭게
실제로
씨의
안산
이낙
최소
크리
탄생
탈락
플라
했던
##ow
##라비아
##로마
##마다
##소에서
##오카
##월드
##퍼시픽
대한제국
258
대표를
1966년
##교육지원청
090
교육부
만들기
##사령관
행사에는
보수당
마케팅
##트트랙
2회
3차
3분기
김유
꾸준
놓고
도미
맺었다
무장
비서
비디오
성과
야당
올린
의사
이랜드
잠시
제19
징역
탈퇴
하계
##로가
##에이
##조정
##트라
##문학
##진당
##소속
##나고
##계의
##슬로
2016
##부터는
##회의를
조선의
1947년
1962년
국제축구연맹
장관이
회장의
활약하고
사실상
선출되었다
인터넷
트레이드
HDC
아모레
이낙연
2로
400
SC
고등
그런
금호
김제
덧붙
모터스
방어
쇼트트랙
안창
얼마
이순
이개
작성
장석
정도로
주니어
##서트
##기금
##도니아
##지부
##지주
##동산
##코프
##주로
##르게
##진다
##NC
##병대
##국가
##여객
##현진
##현대
##폴리스
308
278
지역에
민주공화당
김정숙
들어가
결정했다
적극적인
필요하다
##치오날레
알바니아
안재현
한국전력공사
인테르나치오날레
이개호
8강
개신교
기아
노선
단일
당원
맡은
모아
박종
봉사
브레
시는
신설
유승
작은
전자
접수
정도
조양
종로
티베
팀은
##에선
##지오
##형을
##시가
##일자리
##건강
##보르
##치의
##절을
##바로
218
248
대표로
의원을
1965년
관계를
멤버로
##하겠다고
출연했다
계획을
1919년
스웨덴의
가능성이
기자회견
불가리아
University
말레이시아
4분기
MV
Ro
광복
기탁
꺾고
뉴스
다니엘
드림
따뜻
베를
부회
부통령
비밀
살아
시인
심각
얻어
열어
오랜
완성
이자
이벤
재단
코파
토머스
팀이
합격
히어로
##지능
##원장
##EC
##리칸
##아르
##공무원
##일리
##메니
##신의
##경완
##만원을
##국을
##래곤
##드래곤
##계층
##참모
238
298
선수이며
서울에서
대통령을
민주국민당
운영하고
이상의
대회에서
적극적으로
##왕후의
조선민주주의인민공화국의
프란치
##케이팅
강등
것과
권한
기구
나주
노부
범죄
부장
부사
사전
손병
수록
스스로
승부
양주시
얻었다
요리
원장
일환
작전
정착
정복
조원
천안
치러
평균
허위
후안
히데
##지게
##스러
##스럽
##그레
##하나
##하거나
##정한
##식은
##카가
##결승
##있다
##균형발전
##커스
##뚜기
2014
268
288
##까지는
##olv
사이의
1930년
하나로
##안전대책본부
##all
FINA
전투에서
필리프
노력하겠다
드래곤
아메리칸
업무협약을
빌헬름
신천지
diss
고교
나눔
도널드
목적으로
받았고
비오
위협
이경
이반
정성
주택
죽은
지켜
출발
해리
흡수
##이기
##기고
##과장
##제에
##제약
##전남
##희경
##리니
##장인
##ap
##시의
##보이
##대행
##화된
##국은
##연수
##언을
##하였던
리그인
국가안보
아이즈
##방송공사
아르주
이끌고
##금융그룹
##금융투자
내용을
동아일보
그녀는
##사관학교
네이버
##선수권대회
##olved
dissolved
권력
농구
도서관
디비시
뛰어난
라리가
레인
배치
보냈다
분위
사라
서태
서비스를
세우
세인트
영상을
우루
제7
주교
진도군
차관
차량
채택
테오
편성
했으며
향해
##로로
##이를
##지지
##타로
##타마
##일을
##주민
##팀인
##고속
##버그
##당에서
##AS
##FB
##화에
##계약
20대
2세와
088
교육을
##센터는
이름은
결승전
주최하고
업무협약
강경화
과학기술정보통신부
아모레퍼시픽
장석웅
거듭
건륭
교토
대형
문제가
바뀌
박병
보니
부부
신고
실현
어떤
에는
자녀
장흥군
정재
제6
제목
조용
주변
추기경
팀인
행정부
홋스퍼
##자산
##도에
##시와
##하의
##프란
##네시아
##슬레
##참여
##왕을
209
172
318
##에게는
대통령에
004
078
098
실시한
미래한국당
상황을
라이온즈의
유니콘
프란츠
##과학기술대학교
FA컵
매출액은
정세균
인공지능
조양호
EBS
가리
가격
거리
도전
떨어
미네
박진영
받았
보르
부탁
뿐만
사도
스피
얼굴
외에도
유사
의회
이화
이중
자료
장로
지지를
집단
처형
천정
카카오
크루
하면서
하반기
합스부르크
헤이
형성
형제
##자이
##기록
##아버지
##마블
##대전
##디움
##드가
##명한
##함을
##음악
##ud
216
이후에
1953년
시작한
현대그룹
진행된
##본부장
이사벨
2020년도
##교통공사
올해의
##경기에서
베네치아
평화민주당
관광객
분석했다
아메리카
스틸러스
비틀즈
##프란시스코
1조
An
김희
김혁
내세
널리
담은
리투아
박찬
상호
샌프란시스코
소송
수익
실질
여행
의하면
이며
촉구
치매
크라
해상
했지만
##부모
##위가
##기준
##ci
##주식회사
##국장
##분야
##클럽
##모델
##션을
##히트
##ran
206
207
229
대표의
일본군
기록하였다
국제수영
출연해
공식적으로
활성화를
감염병
시간을
외국인
기상청
도르트문트
리투아니아
2시
2루수
겪고
고향
구조
기회를
김소
나왔다
넷마블
마치고
반응
분쟁
브루
상주
성인
송하
아테네
연극
원년
위키
유대
이원
이른
있지만
자기
전사
채용
커뮤니
코리아
포인트
푸틴
##다바
##제이
##리기
##리안
##동맹
##아의
##일본
##문이
##소의
##개를
##식에서
##화의
##페르
##크스
##크의
##방울
##미널
##쩌둥
함께하는
044
064
034
054
014
024
프로축구
지역에서
074
국가균형발전
중앙정보
관련된
##대학원
SK하이
코로나19로
아니다
결승전에서
당선되었다
##시스템
정동균
외교부
소녀시대
마오쩌둥
MVP
프란치스코
김혁종
국제수영연맹
AI
AO
Ma
건물
고창
공을
마쓰
명나라
문학
방안을
부활
신임
신속
여기
요제프
이태
인기를
장수
장흥
정용진
준결승
진단
친환경
카롤
코미
폐지
포스코
하락
화성
활발
##에어
##아내
##당과
##PA
##책을
##음에도
##필드
##모니
##바라
##ut
선수권
기록한
때문이다
##산업개발
롯데그룹
##시키는
기대한다
모습이
하였으며
증가한
소비자
##주년을
도움이
챌린지
페르난도
오클랜드
크리스티안
1루수
2위
건너
게재
기성
남성
대립
맺고
머물
모바일
밝힌
벌어
부총리
사단
성우
성적을
시기
앞장
연산
영산
유인
이들
재임
전력
전날
증거
지상
카르
회장을
##부에서
##들인
##지자
##지면서
##상과
##보호
##소가
##정과
##세유
##학규
##드린다
##플레이
##명에
##율이
##브를
##키는
##왕과
##컴퍼니
##홀에서
16강
##회의에서
의원의
1942년
발생한
사랑의
인도네시아
노동자
의혹을
##전문학교
세웠다
SPC
덧붙였다
간호
공주
금지
동성
무소속
미술
부회장
비용
삼국
상징
세운
슬로
실천
안타
양현석
여의
왼쪽
유향
이론
장교
전역
전희경
주한
주축
진도
케빈
탄핵
평론
협조
확장
후손
##ot
##일은
##노조
##조직
##프라
##핑크
##춤형
##뮤직
광주대학교
현대모
연구원
1938년
교수는
3세의
경찰청
국가대표팀의
마르세유
알렉산더
##테르담
은퇴한
기반으로
센터백
유향열
IC
가정
광역
나카
미야
비행
사임
애플
이석
이복
일어난
장휘
전면
주력
죽자
진주
클린
투어
트위
판다바
페이
한진
해적
협회
##와이
##관계
##리트
##으므로
##아일랜드
##상은
##사랑
##우의
##경을
##비가
##세는
##드시
##결을
##퍼런스
##번의
##프는
##km
##뿐만
##박물관
##렸고
##샤바
##굽타
041
서울대
프로게이
001
071
축구선수
##위원회는
국가보
정치적
비롯하여
1933년
이상호
사건을
1926년
사망한
정책을
브라질의
본격적으로
이야기를
이인영
콘스탄티노
해양수산부
사우디아
프리메라리가
요코하마
여운형
##스러운
천정배
장휘국
프로게이머
7개
PS
US
가이
가치
결의
기울
김삼
나머
노력을
대원
대림
더블
동서
때는
마음을
무대에
문제로
반드시
스케이팅
시범
에레디
열리는
오뚜기
윤종
이익
이렇게
장애인
전당
중도
진흥
총독
카디
하에
한반도
허용
형태
호소
호세
화이트
환자
##ert
##수엘
##제철
##권도
##인조
##군단
##트맨
##ge
##신영
##추어
##어촌
##진은
##비히
##선의
##식과
##RA
##키스탄
##졌으며
##십자
##달러
##ul
##umber
##뉴스
##뱅크
256
319
광주은행
##위원회를
활동한
전쟁을
사건에
자이언츠의
기타리스트
보여주
마케도니아
남아프리카
파트너
일환으로
우루과이
코미디
사우디아라비아
1천
Vf
고대
관람
그와
마침
매니
성립
스톤
스포르
신정
심재
아라
연대
왕으로
유아
있었으며
정인
지드래곤
창출
책임을
초반
충북
펼쳤다
포기
했고
##기부
##제일
##적이고
##권의
##코치
##트와
##건을
##신문
##정으로
##세에
##차례
##유업
##요일
##명했다
##생의
##프의
##패로
##벤션
226
309
286
051
011
021
프로토스
지역경제
부산시
장관을
문화재
스타디움
바이올
이승옥
페르시아
언론인
피해를
박주선
열린우리당
목표로
number
간부
김강
대법
대하여
대규모
도성훈
멸망
바람
방침
부동산
아소
엑스
연남
열렸다
완주
왕가
이춘
재학생
제한
코치로
타격
테레
통하여
패션
해설
회의를
##ry
##부총리
##and
##트르
##소는
##대군
##당인
##FL
##화로
##여성
##DA
##딩스
##밖에
219
246
296
광주여자대학교
서울중앙
##레이션
자신을
참여하는
여성가족
K리그2
프리미어리그의
베네수엘
예상된다
##국제공항
강력한
유관기관
이회창
따뜻한
2부
2번째
6년
같다
고시
고흥
남겼다
늘어난
동의
둘러
리오
마틴
만화
메디
명을
명문
변신
보성
보안
북미
비교
사커
산림
서기
수학
수많
스카
스프
쌍방울
알레
애틀
연수
이제
이달
익산시
장택
점을
정무
주고
차별
총장은
최강
통신
편입
한일
##자문
##영의
##원자력
##루아
##동을
##석이
##였으나
##마의
##진이
##호영
##무라
##광주
##민이
##구역
##레나
##협의
##백화점
##평을
##히로
215
236
30분
##ess
##스트라
민주주의
073
참여해
개최한다
만들었다
##정보원
1925년
이라크
지속적인
##경찰서
호남대학교
본격적인
히로시마
홈런을
식품의약
장병완
나머지
수많은
1억
가경제
개설
경주
공민
남은
눈길을
닥터
도경완
때부터
라치오
루트
마라
마가
매카
바라
박원
법원
부부가
브레이
상품
세워
아서
아리
않아
정주
정권을
조치
죽음
철학자
체계
친정
하기
##린이
##들어
##교의
##공주
##어는
##보수
##NG
##디스
##방역
##재난
##급을
##바키아
##블로
##블랜드
10개
2004
259
239
279
277
대표하는
리그에서
후보에
현재까지
중국의
정치인으로
개최했다고
라이프
기업인
결과를
평가를
페르디
제주특별자치
슈퍼리그
보유한
클리블랜드
안창호
국가균형발전위원회
에레디비시
6개월
Bo
고이
고령
고종
공사
공항
구속
끝내
나중에
내렸다
당초
동일
되자
마찬
메탈
무렵
받지
보스
분열
상당
생태
세븐
어느
여겨
영웅
유은
일이
전철
제정
젝스키
지나
콘서트
트리
해소
협업
##다드
##과정
##지구
##제품
##교류
##군수
##조가
##사키
##비뉴
##니스트
##세한
##청에서
##NE
##국으로
##려고
##모어
##um
##엑스
10년
2005
247
266
043
063
033
053
013
023
003
사회민주당
##사업에
이적하여
교수가
이정미
비판했다
프란체
거두었다
통합진보당
베를린
디비시온
1만
OB
Th
TBC
in
가담
거둔
김선
나갈
내에서
노인
댓글
동남
류현진
마누엘
막내
말았다
메인
배트맨
브라이언
손학규
신용
씨를
아돌프
안드레
않을
앵커
역전
열애
옮겨
왕위를
용인
이준
이곳
일어
입문
자살
정승
정경
정비
조영
주거
취득
카자
태종
트라
포수
피겨
합작
##ha
##rist
##로운
##자에
##가스
##리며
##리치
##장학
##안타
##어트
##해를
##해왔다
##대회를
##중심
##크는
##유산
##법에
##체를
##분이
##네이
##예를
##바스
##날두
##느냐
217
306
299
316
축구단
##교육을
시작된
대해서는
라이벌
##안전처
받아들
지방자치
투수이다
##진흥공단
유니폼
나이로
이해찬
자리에서
가문의
유일하게
스티븐
행복한
##슈타인
인터뷰에서
동기대비
클래식
##우라바
크리슈
국가안보실
트위터
4강
7년
Ar
KO
가는
가마
개봉
거절
구청장
그려
길을
녹음
단계
독자
또다
리드
문무
민선
발행
배경
벤피
분노
상반기
수용
신민
앞에서
이진
이씨
이혜
이었다
인기
인사를
자원
정확
제일
중장
중반
천문
충남
치료
학부모
한번
호날두
##수도
##자였던
##리티
##ss
##cm
##단지
##신이
##보드
##했기
##비행
##나무
##중이
##받는
##생명
##종을
269
276
289
287
##되었는데
##겠다고
세계적인
국회의장
개최된
라이브
##지원센터
것이었다
데뷔했다
김대중은
1924년
아버지인
활약하였다
LG전자
학생들이
출전하여
클럽인
고려대학교
미드필더로
있었지만
있었으나
연고로
규모의
선교사
레코드
이집트
루트비히
3대
3루수
4대
DFB
강한
계기가
곽상
구미
그들의
남원
뒤에
로빈
마감
만화가
무대를
박용
사촌
사장이
술탄
시대의
않는다
없어
연계
오세
오히
율리우스
이효
일원
임직원
자랑
전북도
조소
좋아
차르
추석
한인
홍콩
환영
##hn
##다운
##위의
##가지로
##전의
##동에
##설을
##치며
##무열
##유의
##후의
##드니
##생을
##미스
##반을
##예산
##if
##농구
15세
227
237
249
한국해양
감독이다
했다고
086
096
사회복지
부산은행
사업에
출신인
추진하고
1932년
우리나라
사건으로
1918년
캐나다의
임명되었다
역임하였다
주관한
우수한
기여했다
사무총장
지금의
##드라굽타
건축가
후쿠오카
아이즈원
SK하이닉스
유은혜
AD
IM
Le
SV
강민
거뒀
군은
김건
끝으로
높아
다섯
독재
동계
디에
마블
박남
발전을
부상을
부르고
비스
식민
여왕
오바
유키
유소년
이현
이들은
전혀
철학
철저
청주시
최수
카라
카우라바
컴퓨
코트
클레
파라
판타
학술
한상
협약을
힘입
##이지만
##자들을
##도비
##리에서
##회와
##시험
##하지만
##하르트
##문에
##보병
##개선
##세력
##파의
##올라
##번을
##구의
##모로
##달라
##언스
##푸드
205
221
267
##하였다고
한국농
317
##에게서
##est
##위원으로
##위원회의
FC와
##igh
정부에
시즌에서
제15
##ill
독립을
##스와프
##기관으로
000명
1921년
노무현재단
바르샤바
역임한
주관으로
사랑을
하였으나
운동을
이글스의
나타났다
보유하고
에스파
알렉산드로스
남양유업
이범석
제주특별자치도
오히려
2개
IT
LI
La
ML
고발
공부
김철
깊은
미하
받을
받게
받았으며
보장
부안군
브르타
생제르
설득
세상을
심사
완전히
이광
이민
이끈
인상
인하여
일조
일화
장윤
진지
진영
최기
취리히
측근
카이사
타고
하게
항복
##이닝
##기지
##에스
##av
##인지
##인권
##순위
##식의
##AR
##카르
##파로
##파를
##티브
##즈베
##테크
##퍼드
##재판
##네스코
##났고
##캐슬
##ine
203
257
245
079
089
099
부산과학기술대학교
##되었던
제13
진행됐다
한다는
민주당의
이적했다
##로서의
1909년
폴란드의
여러분
내용의
유니버
니콜라이
전해졌다
##공동체
하노이
스프링
마찬가지로
브르타뉴
1일에
6개
CS
Pa
가로
가서
갈라
강화를
교사
글래
금메달을
김씨
내부
더본
도와
라틴
로이
맞춰
미니
번역
벌어진
브래
상원
셋째
손을
아인
아름
아센
오다
완도
위기
유신
유네스코
일을
자주
재개
잭슨
전속
정일
정말
주립
최상
충돌
친선
키움
테일러
토니
파크
항의
해운
##이노
##지현
##동조합
##준비
##해진
##경기를
##토지
##작전
##브란
##거운
##축제
##평화
##덕여
##없는
##맥스
##었다고
307
297
위해서는
이후에는
FC로
프랑코
1941년
1세와
097
제16
국회에서
네덜란드의
포함해
오스트리아의
크리스토
생각한다
등장하는
##프로그램
일으켰
유벤투
의정부시
##올림픽위원회
이같이
꾸준히
##슬레틱
이른바
여의도
대법관
힘입어
2분기
BBC
관료
그것
기소
나와
대장
듣고
뛰고
무덤
무엇
무안군
문희
물려
미세
보성군
승강
신뢰
아파트
알라
어르
여전히
오페
웨스트
이의
이고
이방
익산
일렉
장면
정우
정현
제20
조작
좌파
차기
코치를
파르
파악
해서
화장
효율
후에는
##로그
##들로부터
##성의
##92
##교구
##루이
##스테르담
##인재
##안부
##진화
##소득
##비의
##나눔
##당했다
##되기도
##디에
##었을
##처를
##브스
##점검
##농협
경기가
프로야구
정부와
##레이드
##교육감
087
제17
제10
문화예술
대학교의
선거에
스타일
3세가
##사회당
공격형
성공했다
다이노
마이크
돌아온
즉위한
##하려는
시티즌
국정감
김원봉
경험을
아시안
민주자유당
강기성
드래곤즈
기성용
대림산업
박원순
카자흐
벤피카
박남춘
더본코리아
AK
CI
PD
거론
그림
대리
롤링
만난
맞는
무산
민영
배구
보면
부대
부의장
붉은
사립
서정
수학자
암스테르담
어렵
얻은
여객
왕위에
유리
육상
이창
이건
임영
임원
정통
조명
주석
지구
직업
치른
편의
폭스
하자
혜택
화가
##이스트
##리조
##인철
##사법
##문제
##대장
##병을
##민은
##vN
##요시
##계약을
##ke
##kg
##례를
##박람
##홀딩스
##히는
##균관
한국프로
바이어
모두가
선정돼
##복지센터
사람은
데뷔한
미래에
##하겠다는
1908년
1922년
김성수
다이노스
이끌었다
가톨릭교회
공연을
아우디
요청했다
니콜라
내셔널리그
그리스의
정종순
관심이
연습생
리니지2
EXO
승부차
김삼호
애틀랜
조소앙
컴퓨터
3당
8개
Br
DB
J1
KG
감리
강제
개교
개입
게오
공약
국군
그래
김한
대항
도지사
만족
발발
방안
본부
북쪽
브랜
사항
산학
설계
속에서
스페
시게
신의
신재
아울
아카데미
안동
어떻
올랭
유영
유희
유포
유학
이희
자금
장녀
정읍
정례
조금
중의
직무
진입
카타르
콘라트
쿠데
타카
투쟁
피오
하비
행사는
현황
##력과
##자들은
##지사는
##교회의
##전한
##son
##OU
##스쿠
##net
##진의
##보장
##고자
##세청
##대신
##대통령
##청사에서
##선급
##나와
##플라
##편을
##미를
##미터
##미나
##점에서
##났으며
13개
275
1998
1944년
천황이
설립되었다
육군의
출연한
활약한
참가했다
오리온
그레고
루카스
마침내
오바마
IB
J2
SU
TS
강연
곧바로
규정
그레이
김인
끌었다
나아가
다수
달라
대륙
떠난
레논
마친
마리오
만남
무사
무신
무료
박은
박양
본래
불안
비슷
사르
성균관
소득
속한
시험
신학
안내
앞에
애슬레틱
여동생
우익
유성
윤석
윤보
인하
인식
잘못
정지
정진
좌익
주세
준공
진학
참모
최용
축제
혐의
##수석
##로이
##자키
##기계
##전으로
##리다
##리자
##리게
##동의
##아트
##트에서
##설이
##신기
##하시
##소타
##청을
##차로
##화와
##파이
##즈는
##즈가
##중한
##통을
##테스
##민수
##족의
##브레
##미연
##행위
##거를
##슬러
##클린
##바흐
204
225
255
235
285
한국수
295
##위원장을
경기는
서울시장
대통령으로
미국인
시작되었다
국제올림픽위원회
삼성그룹
정치가
이름이
위원장은
천황은
##운동을
전남대
공동체
1935년
실시한다
시민의
하나의
방문하여
공격을
중심의
체결했다고
다이아
특별한
##금융지주
기대된다
##세계수영
타이거스
추가로
새정치민주연합
일으키
외교관
안정적인
오늘날
##리노이
부상으로
발언을
아우구스
지하철
미네소타
SPC그룹
클린턴
##재난안전대책본부
보스니아
1번
1층
2대
De
En
가동
가치를
갤럭
고지
고베
구간
단장
도모
등판
떠났다
르네
망명
미스터
불린
비해
선물
수입
시드니
실제
심의
쌍용
아주
역을
오픈
원더
이틀
이홍
인간
일어나
잔류
장동
장덕
전공
조기
창의
철수
토리노
평생
한양
홈구
##기까지
##지연
##91
##권이
##동구
##인력
##ne
##어도
##보는
##우를
##경비
##니는
##NN
##즈를
##두사
##애나
##구와
##현주
##피크
##CK
##슨은
##융합
##ational
265
한국어
한국당
선수를
지원하는
아이디어
현대건설
이어가
중앙재난안전대책본부
사람들이
하나이다
성공적인
1917년
마이크로
일으킨
대변인은
이시영
ISO
김광수
제19대
유승민
##스럽게
매니저
여성가족부
베네수엘라
장택상
마라톤
생제르맹
J1리그
어떻게
J2리그
1회
3위
Cl
CBS
가즈
가맹
개시
공립
긍정
김도
김장
김포
대기
델타
도민
맞춤형
박지
북조선
상위
석가
선전
성적
세력을
송시
송가인
수영
역사가
왕의
움직
웨일스
위대한
유기
이세
이토
일산
임신
자매
작사가
저지
제8
제대로
조르
조배
조봉
주장을
중에서
태권도
특정
포천
플래
하야
하정우
후배
##부산
##이었으나
##94
##형사
##루살
##아는
##인사
##메스
##주인
##상규
##고에
##치에
##무역
##즈키
##중인
##브러
##됐고
##함과
##피탈
##모임
##ug
##HO
##봤다
2002
한국선급
##0년에
지역민
조선일보
아이스
제18
이사장은
1937년
1931년
영화배우
하나인
진출을
구성되어
제작한
조지아
이승만의
시리즈에서
영향으로
기존의
Christ
YG엔터테인먼트
유로파
추정된다
공정거래
한전K
타이틀을
조건으로
HDC현대
부장판
앞장서
콘스탄티노폴리스
김건모
어르신
송시열
조배숙
##루살렘
2만
3루
5대
9세
HB
KCC
LH
Te
tvN
갖춘
경고
군청
기재
남조선
넘겨
누구
다수의
당나라
링컨
막스
맞서
미키
방법
백두
부위원장
상파
샬케
속에
승진
실행
예루살렘
이봉
일리노이
잡아
재능
정태
제치고
주었다
진압
총리가
측이
포럼
포스트
표준
피에
학위를
한때
한혜
할인
할아버지
함부르크
허가
혼인
##ort
##라와
##부발전
##자금
##기독교
##제와
##교수
##적의
##리우
##장애인
##회원
##친왕
##동원
##시스트
##인들이
##안심
##소로
##경남
##디부
##중공업
##유치
##플러
##TS
##울루
##됐으며
##입니다
##예수
##예방
##예슬
##iz
##츠는
##범죄
2003
선수로서
미국에서
FC가
FC와의
운영을
##101
SK그룹
가수이다
교수로
선정되어
데뷔전을
2019년도
##사회복지
상황에
참가한
제2대
##축구협회
엔터테인먼트는
학교법인
제공하는
분데스리가의
있어서
전망했다
##하려고
나가겠다
오른쪽
연주자
명칭을
##공업고등학교
##주택공사
2021년
아마추어
현대모비스
마가다
페르디난
코트디부
미래에셋
애틀랜타
박양우
조봉암
상파울루
A의
BJ
Co
SW
가공
강의
고전
구체
그랜
기억
낳았다
내가
다케
당대표
대사
대거
동점
등극
디비전
레버
맞붙
모터
무궁
민원
박준
부구
분할
빅히트
빼앗
실무
앨런
유력
응우
이만
임용
장성군
제퍼
조합
지명을
콜롬
폐비
포트
표트르
하원
하워드
한마
한명
현직
호응
홍원식
희생
##수사
##서스
##와는
##93
##인인
##코는
##사화
##포럼
##니의
##니치
##토모
##청천
##선으로
##실한
##AA
##페스트
##크라
##유통
##미야
##프와
##네갈
##봉길
##느님
##했다가
1500
305
3000
한국민주당
315
선수들이
대통령직
기록하여
지원사업
095
참여하였다
장관과
전라남도지사
##ick
추진한다
##들과의
선정되었다
전쟁에
경남대
창당한
업무를
취임하였다
김현미
분야에서
지금까지
농업기술
충청남도
창원시
반란을
취약계층
심재철
바이올린
미세먼
아울러
석가모니
1호
2위를
9시
AB
가슴
것도
과정
군산
권유
권력을
그랑
김부
노스
느끼
다스
대외
대통합
라마
러브
마산
마르크
명령
모임
모여
모색
무라
보냈
부담
부부의
슈팅
신사
씨에게
아기
양자
양승
역량을
연휴
올려
왕가의
이천
일찍
입장
자크
재무
재즈
전성
전화
조사를
주연
지미
지목
카메라
태양
태풍
터뜨
피터
향한
호흡
##ew
##era
##부처
##이가
##성장
##제도
##전은
##리시
##리학자
##으니
##팀은
##마를
##니에
##선은
##되면
##티스
##즈니스
##드와
##체험
##플러스
##TA
##골로
##번호
##망을
##미가
##재를
##키가
##바겐
##투기
##벨벳
##쳤고
##캐피탈
##랐다
10시
##리아의
대표이
선수들을
미국에
FC는
10월에
085
진행한다
추진하는
##501
영화감독
1일부터
##ann
타이완
사망하자
번째로
개발한
예비역
##보다는
돌아가
필리포스
입단하여
동아제약
##통신위원회
레드벨벳
인천광역시교육청
전략기획
스튜어트
##생활을
한국시각
홈페이지
득표율
장제원
프랭크
영산대학교
리오넬
디에고
리니지2M
유로파리그
HDC현대산업개발
콜롬비아
A리그
Re
가와
가브리
것처럼
게시
고위
고속
공간
구입
근처
금메달
기다
김여
나는
내놓
누리
대화
막시
매입
명단에
무역
무시
베스트
선진
세네갈
셀주
신상
앤드
언더
연간
연락
예고
오디
우디
워크
워너
원칙
위기에
이철
입대
작년
재학
전용
접근
정리
정유
제프
죽고
최성
최태
추모
케네
코웨이
쿠르
트와
팀에
팔레
페메니
포칼
하드
하다가
현안
황태
휩싸
##자들에게
##관으로
##영진
##가능
##전쟁
##터리
##li
##공연
##주에
##상으로
##하키
##하라고
##비는
##비야
##고용
##학습
##선이
##디는
##파와
##홈쇼핑
##테른
##태경
##미아
##모를
##박스
##ell
26일에
##9년에
위해서
일본국
정부를
소속되어
##201
더불어민주당의
##257
대학생
전쟁이
3세는
광주광역시장이
우리공화당
국회부의
수상한
1907년
구성원
##특별위원회
도시재
그리스도
카를로
이동휘
가능한
마지막으로
나이에
정당인
##케이션
에이핑크
베르나
회의에서
연고지로
오스트레일리아의
나폴리
##학년도
강점기
헤르체
하노버
경희대학교
전신인
자문위원
동방신기
안토니오
이외에도
##월드컵
종로구
매카트니
유희열
갤럭시
부구욱
응우옌
제퍼슨
가브리엘
2루
2천
5000
CO
FK
Mnet
UN
and
간미연
개의
광해
김은
끌어
내에
넷플
누르고
뉴캐슬
당내
대결
대회의실에서
데에
도덕
때에
라파
리스
리베
명령을
무려
문신
밖에
반박
방위
보병
보좌
복무
부다
붕괴
선두
선배
성향
소집
소시에
스탠
시우
아산
아슈
알폰
야쿠
에마
왕이
위성
위탁
위험
유타
윤성
의사를
이우
이전에
자산
자리에
자료를
저녁
전인
전설
제21
제품을
즉시
진로
착수
찬드라굽타
참조
청렴
총대
최규
최민
치렀다
침략
페론
포위
피에르
한정
해산
허영
홍문
화제가
히트
##다르
##로당
##창업
##자들
##영은
##회관
##스틴
##의사
##시킬
##단장
##였지만
##진우
##보디아
##개소
##비용
##삼공사
##나우
##AP
##만금
##중근
##크를
##쿠젠
##술을
##베스트
##베트남
##행한
##강점
##바지
##매김
##윤모
2001
264
한국환경
한국시간
##3년에
정부서울
아이파크
프랑스어
1934년
발표하고
발표하였다
##기관인
시민들의
1912년
레이블
대회에
진출에
음악을
##관광공사
내용이
찾아가는
건강한
도쿄도
있었는데
모델로
자리매김
##스티벌
신청을
후계자로
현대자동차그룹
알렉산드르
기자회견을
송하진
진단했다
김강립
카자흐스탄
올랭피크
##예수교
무궁화
케네디
트와이스
Sa
감안
개방
경산시
공익
공백
구로
그에게
기계
노후
놀라
다마스
동신
라스
레닌
로즈
메가
목사
받으며
방사
방지를
보급
브로
빈두사
새만금
서포
선조
송영
수감
수페르
시정
신민주
실력
않았고
압도
연희
연출
영락
오카
월트
의무
일원으로
있으나
전임
전태
전동차
정명
제가
제휴
조세
주문
주식
주장이
중부
크라이
편집
피닉스
항일
해야
확대를
##라에
##기니
##ED
##가미
##회에는
##루는
##루냐
##스팅
##공학
##일의
##인들의
##노프
##트릭
##립대학교
##어가
##해졌다
##량의
##비서
##간다
##대사
##티오
##표준
##구가
##행사
##점에
##총독
##bert
##슬리
10세
223
한국산업
한국토지
선수와
대통령에게
후보와
당시의
현대미
##되었지만
##233
사이먼
##365
##362
##360
##350
##ang
방문한
주장하였다
학생들의
왕국을
음악가
이재용
인물이다
CJ그룹
일제강점
결성된
김재규
드러머
성남시
오르반
이슬람교
피아니스트
소프트뱅크
대부분의
##의료원
주재로
장학금
이로써
John
아소카
받아들여
거뒀다
장윤정
DB금융투자
그레고리오
신민주공화당
3번째
CP
Pr
UC
VI
강사
개관
골드
공화
관장
그라
나뉘
다소
담긴
덴지
되었는데
딸인
만료
만났다
만드는
무대
박해
발의
배포
부처
사마
서초
성폭
셀틱
쇼핑
스크
스윙
시라
시흥
신당
신앙
십자
안드
알렸다
압둘
앨버트
양평
여기에
요하
원로
윤병
이행
이들의
일시
재선
전현
지식
지청천
초등학교
충분
캄보디아
함락
합쳐
현실
황제로
흥선대
##이에
##기인
##도와
##MC
##전과
##권익
##루이스
##야스
##공헌
##노총
##조사를
##메니아
##상담
##팀이
##르가
##포로
##호의
##차량
##크와
##심의
##운용
##PG
##함마
##격투기
##널티
##클레
##께서
##달아
##곡을
##옹주
##최고
##줬다
##밴드
11시
14세
214
254
244
1995
서울지방법원
민주통합당
리그에
##위원회가
시즌에는
##203
##겠다는
##240
##212
##236
이용해
##282
##289
##264
##265
##됐다고
##301
##372
##377
##187
중앙방역
추진할
100만
것이라는
##560
교수를
선정된
##601
##602
##114
1906년
국가대표팀에서
어머니는
비판을
경쟁력
의혹이
제외하고
신세계그룹
박영선
후임으로
에버턴
지냈으며
심각한
##협의체
젝스키스
최수종
일렉트로
HB엔터테인먼트
레버쿠젠
셀주크
헤르체고
알폰소
Sh
가나
개명
개념
걸그룹
경력
경무
공감
과정을
구수
국비
군대
그렇게
기사
나무
내다
눈에
다니
다만
답변
당수
당의
대대
대처
동문
동북
동반
동쪽
디나
맡게
맡았고
몬트리
못하는
무함마
미스
박민
발전에
방지
방향
병원
보통
볼프
부부는
빠른
생모
성사
성장을
소생
손자
손석희
신분
아담
알루
압박
애덤
에디
올림
외무
원작
윤봉길
음식
의결
이한
장제국
재건
전격
전담
주의
직속
처벌
치열
친위대
캠코
컴백
트랜
트렌
폐위
플랑
하희
하늘
허브
형사
혼자
홀로
홍익
후궁
##기에서
##지며
##200
##타운
##co
##아카데미
##시각
##인들은
##안의
##조에
##단계
##상에서
##량이
##말을
##치히
##청은
##청소년
##천군
##화문
##국인
##감이
##려는
##판을
##심사
##복합
##RI
##ip
##웠다
##모리
##바울
##능력
##환을
##폴리
211
234
284
##0년대
광주전남
##195
##191
##199
조선총독
시즌이
활동하는
##207
##254
##256
##251
##252
##250
중국공산당
##246
##249
##213
##210
##232
##237
##230
##284
##285
##287
##263
##290
##277
##270
대학일자리
##364
##366
##368
##303
##306
##480
##380
##397
##173
##178
##355
##353
##352
##378
##370
따라서
##160
##102
##405
그룹의
아르메니아
통합민주당
##314
전쟁에서
의해서
공개한
1927년
##332
국내외
이승만은
지휘자
기여한
준비를
인정받아
국무총
원내대표가
만주국
전통시장
스티브
협약식에는
확진자가
정몽헌
강점기의
##청년단
민중당
김석준
체코슬로
브레멘
히어로즈
부사장
세인트루이스
정주영
자원봉사
이효리
미하일
최상위
##이노베이
도시재생
헤르체고비
체코슬로바키아
5G
And
Cor
FDA
OEC
PC
Sp
강다
강릉
개국
격파
공장
관여
그에
그들은
금액
꿈을
누르
니시
다우
다짐
도내
돌파
루시
마치
말한다
모으
모았다
무승
문의
뮤지션
미사
발족
보는
부서
새벽
서재
성황
세비야
송수
송병
승리에
시조
아침
아웃
아레나
안전을
안중근
애국
에픽
에밀
역사를
오래
오프
오빠
원의
유입
유러
응급
입은
입헌
자율
장애
제9
조치를
지분을
차단
첫째
최대의
컴퍼니
코르
태조
평소
하후
하던
함평
함평군
함태영
호주
혼란
##서구
##관련
##기정
##지훈
##희가
##리케
##역으로
##안이
##군사
##주니어
##설에
##상업
##팀의
##하임
##하늘
##포를
##해온
##개국
##더불어
##티에
##오를
##체가
##방안을
##프를
##현이
##점이
##증을
##강을
##슬란
##왔고
##검사
##렌티나
##렸으며
##셨다
##닷컴
##삭스
21대
224
274
##001
서울교통공사
##196
##198
##192
후보에게
##204
##206
##202
부산항만공사
자신들의
##255
##253
##258
##259
운영한다
##244
##245
##243
##241
##248
##242
##247
##214
##215
##216
##211
##218
##217
##234
##235
##231
##238
##239
##283
##286
##281
##288
##280
##266
##261
##268
##262
##269
##267
##260
##294
##295
##293
##296
##291
##298
##292
##299
##297
##274
##275
##273
##276
##271
##278
##272
##279
대학의
##363
##361
##369
##367
##153
##158
##304
##305
##308
##302
##309
##307
연구소
##384
##385
##383
##386
##381
##388
##382
##389
##387
##394
##395
##393
##396
##391
##398
##392
##399
##390
##354
##356
##351
##358
##359
##357
##374
##375
##373
##376
##371
##379
##183
##186
##182
##165
##162
##467
##453
##452
##450
##105
##106
##108
##107
##401
##407
##585
##506
##668
##579
##ant
##311
실시된
사용하는
공화국이
사건이
성공을
성공한
상황이
정책에
##143
돌아왔다
당선된
데이터
와이즈
종합격투기
출범한
반대하는
##여자고등학교
정권의
전남도청
언급했다
활용한
예방을
국정원
이기붕
본명은
세이부
정몽구
영토를
아키히토
드래프트에서
스파르타
목소리를
비서실
이순신
건륭제
거리두
최기영
##덕여왕
피오렌티나
##세계수영선수권대회
미세먼지
중앙방역대책본부
몬트리올
하희라
OECD
유러피언
##더불어민주당
1인
1명
1분기
8년
Fran
IP
Lov
MOU
갑자
강하게
걸친
경주시
고다
군대를
긴밀
김세
김윤
다비치
당명을
대성
도요
되길
두번째
들은
들고
들었다
람보르
로페
루도비
마인
모건
발레
베드로
병사
볼티
부친
분류
분양
비잔
비즈니스
사다
삶의
새해
쇼군
순창
시각
시내
아약
엑소
올스타
옹립
유래
의병
입주
자본
전선
전분기
정무부
제너
조규
주는
중간
창조
추방
충주
카탈
콘퍼런스
행위
헤라
협력을
홍준
황바울
##ys
##창민
##관의
##직에서
##리야
##리학
##리테
##권은
##타리오
##스텔
##코르
##그라드
##메르
##주었다
##상품
##르디
##어스
##면에
##고와
##치지
##세대
##나를
##실로
##파가
##유키
##미애
##령이
##연이
##키로
##컨벤션
##같은
12개
30년
##les
##8년에
대한민국에서는
321
##5년에
서울의
일본인
미국으로
##194
##193
##197
##190
소속이었던
50여
시즌의
5월에
##205
##208
##209
아이오
제14
제1사단
방송에서
##154
##155
##156
##151
##152
##159
##157
##150
개최한
##174
##175
##176
##171
##172
##179
##177
##170
##184
##185
##181
##188
##189
##180
군수는
##164
##163
##166
##161
##168
##169
##167
아들이다
##464
##465
##463
##466
##461
##468
##462
##469
##460
##454
##455
##456
##451
##458
##459
##457
##471
##478
##479
##477
##104
##103
##109
##492
##490
##404
##403
##406
##408
##402
##409
대학교는
선거를
1936년
##584
##586
##581
##598
##592
##666
##660
##574
가수로
통합하여
##313
##312
##하다는
##하다고
실시하고
##604
##344
##343
##341
##342
##113
##111
##112
김대중의
##444
##443
##441
##442
1929년
##764
##768
##787
##222
##333
##555
##551
프리미엄
##개발공사
##685
시절에
알렉세이
역임하고
##753
주민자치
황제가
##432
##바이크
##000억원
베어스의
찾아가
프로듀스
##651
헝가리의
정보를
계열사
아나운서가
기준으로
오른발
남부대학교
동양방송
동맹을
플로리다
김연아
김우빈
알아사
자격으로
기아자동차
장로교
프란체스코
곽상도
부르고뉴
##보병사단
제13대
다이아몬
총대주교
한국토지주택공사
##이노베이션
3선
Con
Kor
LCK
Pro
감사의
계급
공채
공기업
관중
교섭
극복을
기증
김신
끌고
납치
낮은
내고
다문화
도청
동물
뛰어
리비아
마쳤다
마라도
메르
명절
명절을
못해
민경
민정
바그
발루아
밝혔
백화점
버락
법제
보르도
복합
부른
불거
서동
성금
세력이
소년
시군
시나
싶다
안병
알게
앙투아
어드
연애
영예를
오시
오재
요르
우드
위촉
의장을
임무를
입국
잇따
잡고
전진
전까지
절대
점차
제주시
주시
주어
주둔
중이던
지소
직전
찾았다
총력을
추락
친박
카시
카메
칼리지
콜로
타블로
탈출
투니
튜더
트래
페널티
프라이
학사
향상을
헬싱
호비뉴
후속
##틀리
##산의
##성으로
##지회
##지인
##직에
##EE
##MG
##전기
##터미널
##회담
##발의
##그리
##신용
##치와
##NU
##디자인
##파르트
##티움
##질을
##처장
##브로드
##방을
##미트
##종이
##내는
##갔고
##투표
##히오
##렸던
##변호
##ern
243
271
##007
##위원장이
324
##1년에
일본에
지역위원장
민주화
자유선
후보의
##위원회에서
국가안전
##리스토
기록해
이어서
##사업의
참여정부
관계가
방송을
##484
##485
##483
##486
##481
##488
##482
##489
##487
##474
##475
##473
##476
##472
##470
##494
##495
##493
##496
##491
##498
##499
##497
##583
##588
##582
##589
##587
##580
##504
##505
##503
##508
##502
##509
##507
##594
##595
##593
##596
##591
##599
##597
##590
육군사관학교
##664
##665
##663
##661
##662
##669
##667
##575
##573
##576
##571
##578
##572
##577
##570
##564
##565
##563
##561
##568
##562
##569
##567
##995
##886
##880
선정했다
기업으로
##605
##603
##606
##608
##609
##607
##808
##704
##705
##703
##706
##701
##708
##702
##709
##707
000명의
##관리공사
##904
##903
공개됐다
##지방검찰청
##763
##761
##762
##769
##964
##554
##553
##552
출전해
출전했다
##141
##142
고려대
##684
##683
##686
##681
##682
##689
##687
##754
##751
##752
2004년에
##132
##694
##695
##693
##691
##692
##697
이재현
1년간
이정기
선언했다
이유는
연방의
동생인
##654
##653
##652
이전의
##674
##673
##671
##672
소련의
##895
윌리엄스
등장한다
논란에
만들어진
드러냈다
경성대학교
정식으로
이강인
메시지를
베이스볼
윤치영
제네시스
이벤트를
평론가
카디널
##자문회의
가마쿠라
제16대
대통합민주
##월드컵경기
현대미포
볼티모어
홍준표
앙투아네
6시
EN
So
가쓰
거친
경력을
공인
관동
구자
국경
금성
기후
기용
냈다
넣었다
다나
달하는
대검찰청
돕기
드론
떨어진
로부터
말한
맞은
맡았으며
메달
배정
번의
벌였다
상속
선호
소위
소울
소식이
속해
송종
슈투
시장을
신도
신안
심진화
악화
알베르트
야스
오랫
외에
요크
우즈베
위기를
유스티
의학
의뢰
의과대학
이슈
임종
있기
저항
전무
줄어
지위를
출석
칭호를
타율
탄압
특혜
페트로
페스티벌
폭탄
하와이
하느님
해태
해병대
했는데
향상
화물
황금
휘그
힘이
##라다
##로지
##지사가
##전시
##장로
##양왕
##스와의
##동에서
##공을
##공간
##일드
##인에
##노인
##순위로
##코치로
##단에서
##신학
##하라는
##문재인
##당으로
##민을
##유럽
##출을
##편한
##구조
##절한
##웨일스
##재가
##현준
##배를
##담당
##았으나
##츠크
##ust
##푸르트
##률을
20년
251
231
261
한국방송공사
294
대한민국에서
##위원장은
##대학교의
##ean
##주의를
소속이다
8월에
기록하면서
활동에
참석하여
바이브
바이러스
UEFA컵
##774
##775
##773
##776
##771
##778
##772
##779
##777
##770
##994
##993
##996
##991
##998
##992
##999
##997
##990
##884
##885
##883
##881
##888
##882
##889
##887
선정한
##804
##805
##803
##806
##801
##802
##809
##807
##905
##906
##901
##908
##902
##909
##907
들어갔다
##765
##767
성공적으로
##784
##785
##783
##786
##781
##782
##789
1910년
##965
##963
##961
##968
##962
##969
##967
##984
##985
##983
##986
##981
##982
##989
##987
아버지는
포함하여
LG화학
##794
##795
##793
##791
##792
##797
김성주
마르틴
##시키기
다음날
주민들의
인사들이
##경찰청장
결승에서
1894년
유명하다
가능성을
확산을
요구했다
북한의
##시설을
총리로
알렉산데르
사무총
세르히오
아내인
##슬라우
농업인
나타나
##ive
이종배
레오나
레오폴
소유진
김원효
이수만
2022년
광양읍
##소방서
농촌진흥
##민족행위
##트가르트
모리뉴
이것은
선정됐다고
부모님
프랑크푸르트
브리핑에서
간담회를
연산군
식품의약품
일으켰다
부다페스트
내다봤다
서재필
헬싱키
오랫동안
2연
3명
5천
Me
WK
개소
광화문
구본
군의
권익
기하여
기대를
김주
남기
남쪽
누나
뉴사
다가
다르
대폭
동상이
리틀
맞대
바흐
받는다
백승
법적
법조
베니
변창
본사
브라이
빠져
승인을
시에
시사
시립
시대를
실험
아오
안에
앞둔
양식
에릭
에이스
오케
유망
이장
이학
인류
입사
잠정
장군의
적은
전파
정호
정계
제거
조반
조각
종사
증진
진주시
청산
체제
최정
충격
캠프
코스
투르크
패한
펠릭스
펼치고
폭로
폭력
풀백
필립
하태경
해임
헌신
황의
회담
효과를
후지와
##로프
##이니
##자에게
##제국의
##회로
##ld
##스톤
##안은
##군다
##조한
##gy
##건이
##건의
##팀을
##사기
##하우스
##했었다
##우에
##우스는
##세종
##간담
##토르
##더라도
##흥은행
##씨를
##베데
##애를
##PL
##미는
##러리
##ice
##DN
##모비치
##특위
##und
##훼손
12세
대한축구협회
213
##학교를
##ley
273
281
314
##008
##6년에
##위원을
경기에서는
이후락
이후에도
지원하기
사업이
정치가이다
이용빈
관련한
추진해
아르슬란
##우스웨일스
타이베이
아니냐
공개된
출연한다
경찰서
LG그룹
시절부터
평가에서
##단체장
당선되어
##카이도
출마를
슈퍼주니어
정당이다
##894
##893
##891
##892
##897
##선거관리
복귀하였다
정보통신
가졌다고
일으켜
트윈스의
에어부산
공직자
카이저
아랍에
프라하
미나모토
티베리우스
##자이너
실질적인
PSV
##장학재단
강민경
아인슈타인
제20대
감리교
장동건
Club
요하네스
와이즈유
람보르기니
카탈루냐
레오나르도
뉴사우스웨일스
2층
2골을
3연
4승
4회
IF
LA
WHO
가야
가게
거래
것이며
견인
경진
곡을
구현
기쁘
김택
나르
남해
능력을
다저
다리우스
단순
당했다
데모
때의
랭킹
만다
만약
메츠
명성을
무령
미셸
박경
방식으로
베리
부품
살인
상업
소멸
소중한
스키
시달
시대에
안현
않도록
야로
얘기
없다고
엔리케
영남
완벽
유스
유닛
의심
이내
인용
장을
장신영
절차
접촉
정원
제안을
조흥은행
좌절
착용
칭기
클라이
팔로
포크
프린
항상
현금
호찌
홍성
화제를
##수에
##서기
##부르
##자스
##자르
##성화
##지환
##영화
##교도
##SC
##가정
##리언
##타비아
##루나
##발을
##주고
##주간
##설팅
##하니
##하겐
##였는데
##마자
##우가
##우고
##우치
##비오
##대응
##삼석
##나마
##실이
##카스
##파노
##합니다
##등급
##방위
##미술
##네트워크
##협동조합
##케르
##내고
##iel
##bc
##츠키
##모금
##모스
##up
##저우
##향악
##벤스
##럴드
##쏘시오
##org
##one
13년
15일에
233
304
241
한국관광공사
##005
##00여
축구를
##적으로는
국민권익
통해서
국가정보원
소속된
3월에
2월에
084
094
제11
사업의
사업으로
배우로
진행하고
진행한다고
대학원
제국이
제국을
회장과
이적료
이적한
이번에
바이오
태어났으며
우리은행
대구광역시
임명된
임명되어
##지역본부
메이지
국립중앙
전투를
사랑하는
안전한
위치해
##학과를
##084
##085
##083
##086
##081
##082
##089
##087
대신해
제주도
동아쏘시오
행사에
올라왔다
명예훼손
안정환
포르투갈의
제3대
현지시각
강경준
중화인민공화국의
신한은행
오리올
스마트폰
##라이언스
헤르만
고소영
문성혁
BNK금융그룹
조별리그
JYP엔터테인먼트
제네바
최소화
아르주나
레인저스
자료에
커뮤니티
게재했다
한진그룹
스타디움에서
유니폼을
이건희
폭스바겐
한국프로축구연맹
KGC
SUV
코트디부아르
야쿠르트
##상업고등학교
대통합민주신당
슈투트가르트
식품의약품안전처
아랍에미
2조
2번
3시
3만
4시
CR
CC
GO
KA
Man
NAS
결별
골로
공원
공로로
관할
구글
군산시
그로
그곳
기회가
끝나
남긴
노조
노선을
당한
대주교
데스테
득점을
리사
많다
매일
명성
못하였다
묘사
무리
문선
미리
미카
백선
법인
병무
보조
보나
부천
부총
불렀다
빠르게
상회
서삼석
선박
소외
손에
수가
스즈키
시집
알베르토
애리조
언니
연루
온타리오
외교통
용산
웅진
원나라
위로
이찬
이완
이르는
임상
입고
작업을
제의를
조광
조계
조재
주제
주주
주신
중추
지주
지닌
징계를
찾는
초고
카드
카운
코펜
크롬
테크
토요
퇴장
파티
평창
평등
필리스
학습
한미
혐의를
회사인
흔들
힌두
##서비스를
##이상
##들께
##관계를
##기아
##기반
##지니어
##영을
##가에
##전군
##타가
##친구
##인삼공사
##그와
##석은
##gue
##주기
##팀으로
##르기
##문은
##준혁
##니트
##대문
##청이
##름을
##실에
##판에
##드릭
##명에게
##미의
##령의
##프랑
##종과
##ment
##있던
##매를
##훈이
##흐트
##ork
253
25일에
23일에
301
263
283
한국교육
311
##004
##003
##006
##002
##009
이후로
프로모
프로리그
자유주의
정부에서
##레이크
1943년
활동하였다
활동하며
지원하고
우승한
사업은
참여하여
운영에
##ica
##스타인
위원장을
##대학으로
SK이노베이션
100여
통합당
기업의
사장과
김종갑
광주광역시교육청
사건은
1928년
대회는
##회사인
포함되어
학생들을
받았다고
정책위
보건소
##과학고등학교
결혼했다
체결하고
다이빙
도시철도
평가했다
조성수
총선거
돌아와
국방위원회
이정희
동아시아
출마한
##중앙회
원내대표는
##슬라프
민족주의
덴마크의
기반을
##954
##953
##951
##952
##974
##973
##971
##972
획득했다
GS25
활성화에
빅토르
실적이
부르봉
주목을
##소방본부
##보증기금
대해서도
가까운
기능을
조원진
치러진
AOMG
##어촌공사
스카우
공민왕
##보수당
또다시
문무왕
##ight
산학협력
하비에르
아이스하키
막시밀
우디네
윤병태
디나모
송수건
에픽하이
민경욱
##슬라우테른
동상이몽
카이저슬라우테른
미나모토노
애리조나
코펜하겐
1개
1라운드
2개의
Car
FT
GM
LS
강호
강용
개통
개선을
거행
거짓
검은
결정을
겸임
경계
고백
공수
규제
극장
근황
나루
난다
넘는
높이
뉴턴
니키
단행
대량
대회를
더비
돌려
동국
되도록
디스
로만
론칭
루돌프
리스트
마린
마스터
모범
무효
민병
박기
발간
법학
보아
보인
본인
본관은
새마을
생물
서인
서거
서쪽
섭정
소감을
손꼽
송갑
스탈
스미스
신라의
아드
안심
알프
어디
업계
없을
에인
연봉
열차
예결
오를
왕자
윌슨
유동
유정
음주
의열
이노
임진
자진
자민
작센
잡은
저작
전지
조성을
주류
주말
주니치
중견
중의원
지니
참전
청취
최연
출산
측에
카프
커피
크림
크라이나
탐험
파괴
판정을
팬들의
편곡
할리
헬로
후인
흐루
##olo
##린의
##과에
##도에서
##에만
##영수
##가치
##회관에서
##OP
##루의
##친스키
##시리즈
##일로
##일이
##조와
##메리카
##nt
##사례
##사항을
##마일
##면을
##해방
##고로
##세스
##토를
##토리
##화에서
##국립
##즈와
##중기
##등을
##두로
##씨와
##오고
##요르
##런트
##PS
##레븐
##미로
##네시
##글로벌
##츠를
##바오
##왔으며
##캠퍼스
##que
##웍스
##ong
10대
16일에
대한독립
한국에
291
313
민주노총
FC에서
##하기를
당시에
시즌부터
2세를
지원해
시작해
시작했고
사회공헌
부산경남
우승으로
참여하고
정치에
진행한
진행하는
중앙당
라이언
전남대학교
##지원사업
데뷔하였다
방문했다
경제적
경제부총리
1903년
여성의
1915년
경찰에
이라면서
진출했다
출전한
차지하였다
고려공산당
다이쇼
알렉스
산업혁명
메이크
주관하고
다음과
조직위원장
졸업생
이재명
매출이
대신하여
계속해서
내용은
마련했다
김현수
민주평화
승리한
##시즌을
아르헨티나의
명예회
베르더
주최한
패배를
거두며
제출받은
노르웨이의
소개했다
차례로
논의했다
장성택
MC몽
확진자
아시카가
고민정
대책을
차이로
##사무소
도로교통
권한대행
조원태
제목의
촉구했다
문희상
비슷한
라파엘
리스본
갑자기
투니버스
현대미포조선
우즈베키스탄
KGC인삼공사
1기
1남
3개월
800
Be
Com
El
ST
△더불어민주당
각본
간사
감바
갔다
갖추
고메스
관해
구스타
기장군
내지
논평을
농민
누적
뉴딜
닉슨
다저스
당일
대국민
대화를
더글
돌입
되지
되며
뒤에는
들여
디트로
디자이너
딸로
러셀
로켓
로저
마루
막을
말씀
말하며
맞고
면담
몬스타
문자
바실
박유
박차를
반민
병합
보육
보이고
부패
분당
불만을
브뤼
비공
빅뱅
사는
사직
사형
삼아
선사
송재
송진우
수는
수료
심석희
아는
아트
아쉬
아끼
아프가
없다는
역량
예하
올드
와의
우원식
운항
원자력
유학생
유학을
윤소
윤민수
융합
을지
응답
임관
임정
입을
있지
자발
작사
전원
전후
전향
점에서
제독
제갈
중이며
지사는
진나라
차원에서
찬성
창시
천도
최시
최재
추구
카터
칸의
캐서
코너
크다
타자
타케
태국
태극
테마
특허
파기
폭발
플랜
학살
한큐
할머니
항만
현장을
현장에서
협의회
호나우
홋카이도
##라카와
##다노
##수호
##관과
##관에
##기기
##지대
##영민
##MA
##전투
##IS
##타와
##타스
##ast
##OS
##스컵
##공장
##공대
##르비
##문의
##진과
##면으로
##정위원회
##대출
##나스
##만은
##유리
##작가
##법률
##감염
##체계를
##콘티
##재로
##종현
##mer
##man
##팅겐
##내셔널
##졌던
##ball
##란히
##투쟁
##박사
##밀리
##님의
##덴부르크
##per
대한체육회
21일에
303
30여
대한민국을
##7년에
323
경기장
대표적
일본을
지역주민
리그로
리그를
11월에
더불어민주당이
081
091
제1회
##장이었던
사이타마
중앙위원회
민주당과
천황과
이적하였고
이사금
##운동의
육군본부
통합을
롯데백화점
롯데홈쇼핑
시민들이
만들고
관계자들이
아버지의
대구시
경찰은
##엔터테인먼트는
차지하고
차지했고
김성태
임명하였다
왕조가
황제의
지속가능
포르쉐
영향력을
취임했다
2년간
김현종
이루어진
준비했다
협력해
스위스의
승리로
분야의
CJ제일
구축을
5세는
예산을
##스티야
계열의
##수산식품
사회적경제
제3차
세종특별자치
정규리그
수준의
장남으로
아들이자
장제스
남양주시
##통일자문회의
아사히
대우그룹
미군정
프랭클린
표창을
중앙정보부
고창군
코미디언
VfL
지방자치단체
한국농어촌공사
제15대
MLB
유니버설
아름다운
화장품
윤보선
르네상
그랜트
국회부의장
넷플릭스
치열한
조선총독부
강다니엘
ENM
백선엽
민주평화통일자문회의
디트로이트
아프가니
CJ제일제
1루
3층
4개월
5일에
AR
Da
New
Pe
RC
Sou
개칭
게스트로
공고
공중
과르디
관객
권양
그럼
그쳤다
급격
기갑
내정
내외
넥센
노석
노출
누이
데려
도호
돈을
돌고
동해
동로마
되기
디아
뛰었다
로열
로렌
루터
리우
마우리
막기
메드
명으로
몇몇
못했고
무릎
문을
미식
미용
바젤
박선
박씨
박태
배당
벗어나
베오
보존
사우스
상담
생방송
서머
스승
스트리
시가
시애
심지
싸움
야권
야놀
양성을
엄마
엄청
연금
연설
영구
완전
완공
웨이
윤상
이오
익스
일정
임기
임금
전부
전교
정광
존스
주가
즉각
지고
진심
총리를
추미애
축소
충북도
커머스
탑승
털어
팀으로
패스트
팬들에게
폐쇄
포터
품질
프랜
피렌
학위
해에
혜공
호러스
훼손
##로우
##이도
##위에서
##와타마
##창수
##지사를
##84
##제작
##터넷
##타의
##타니
##ak
##OR
##역에서
##조는
##석의
##팀에서
##어린이
##보로
##보가
##보안
##소시
##우기
##경수
##정신
##고쿠
##치가
##치료
##청과
##청문
##학위를
##나드
##광양
##AF
##생산
##레인
##레오
##브르
##태호
##함대
##현의
##졌는데
##클리
##남구
##필름
##았지만
##츠의
##취업
##블리
##링겐
##벨트
##앨범
##퀘어
##ith
##ont
10여
11개
18세
17일에
한국은행
한국자산
광주대
##old
국민체육
감독이었던
감독직을
당시에는
기록하고
7월에
지원할
시작하여
시작한다
093
제12
제1야
교육부장관
배우이자
참여를
##센터가
##이스는
##인민당
인천국제공항
그룹이다
##기업인
스타쉽
미래통합
000만
24일부터
있었다고
주장하는
로마의
수상했다고
제2회
받아들이
##축구단
개발을
지도자로
마이애
마드리드의
마르코
인사청문
광산갑
이동녕
2000년에
졸업한
제공할
제공하고
##티아누
보도자
1998년에
성장할
수비형
판매를
대응을
기간에
계약이
결성한
연기한
KTX
주최하는
영상이
담당하는
##이어서
요시히
획득한
전년도
감사드린다
GS리테
주도한
서로마
##ardo
준우승을
홈페이지를
자회사인
Intern
프라우
연예인
나선다
선제골을
밝히며
제4차
캠페인을
효과가
브리핑을
도미니
광복군
##참모총장
손병희
건너가
아라곤
고시라카와
태종무열
천문학자
해운대
##브란스
제17대
아슈와타마
수페르리가
일제강점기
전현무
헤르체고비나
루시드
비잔티움
FT아일랜드
윤소하
노석환
메드베데
시애틀
4세의
4개의
9개
As
Ge
Lo
Mo
No
School
for
간판
개척
거머
경호
경비
공시
관악
괴팅겐
군인이다
권태
기금
김아
김호
김효
김두
김계
끝나고
나눠
내보
데리고
동지
동독
등도
등번호
라운드
로베르토
류리크
마거
말에
머리
몰아
무기
무한
무너
민정당
박서
박마
발터
발휘
배려
벨라
보카
본사를
부하
비록
사위
사제
상을
상당의
서독
세월
세미
소화
수정
수밖에
숙청
스폰
스톡
슬리
아들을
앞세
양정
언제
얻고
얻게
에두
에피
여당
연말
영양
옥타비아
외부
우리가
운명
울림
유도
유한
유족
유안타
이나
이념
이들을
일로
일원에서
자동
장세
재산
재활
전부터
조병
주도로
중흥
천마
초에
최하
카스티야
커버
테무
테스트
토너
통제
특징
판결
평안
폭행
플레디
한스
한글
합당을
행안부
허석
후에도
##서로
##는지
##이의
##이크
##이프
##지선
##영업
##225
##교를
##전략
##권으로
##루션
##양구
##메트
##상환
##사항
##하람
##문왕
##보미
##소리
##준호
##청사
##당하고
##만큼
##만으로
##국에
##중소
##여단
##유철도
##복음
##죄를
##방안
##재기
##네르
##협약
##내기
##란트
##매치
##홀름
##률이
##변화
##캐스트
##궐선거
##슐리
100년
15년
24시간
293
##2년에
일본이
국민들의
정부세종
1세를
##그룹의
지원에
083
사회부총리
부산대학교
##사업단
세계에서
세계적으로
진행된다
사이에는
##리에이
##억원의
경기도지사
시민이
미래를
김종대
주장하며
1916년
레이더
아버지가
##문화예술
참가하여
##대회는
결혼한
임명했다
##지역의
지방의
뉴욕주
월드컵에
월드컵에서
지지하는
라이온스
가능하다
확산으로
입단하였다
4세는
나이지
인물로
##으로서의
##인트호
논란을
와이번스의
제안했다
##혁명당
달성했다
이성계
##공동모금
파이널
김우중
가르시아
바꾸고
공헌하였다
##세로연구소
김제시
허위사
세우고
유니콘스
##기록을
반응을
커뮤니케이션
카롤루스
국가보안
VfB
스포르차
바람에
연남건
에스파뇰
카이사르
가로세로연구소
정현복
혜택을
제18대
전성기를
일본국유철도
정부서울청사에서
무함마드
고다이고
로페스
아이오아이
김신욱
법제사법
자유선진당
변창흠
아프가니스탄
권양숙
한국자산관리공사
마이애미
마거릿
유안타증권
토너먼트
2라운드
3개의
4위
BTS
CD
DM
GNU
Ke
가시
갑작
강희
거점
게르
게다가
결선
경연
곳에서
공적
공략
남동생
너는
네티
다할
되었
되었으나
드라이
레즈
리옹
마코
마흐
말이
말까지
맺은
모토
몬테
문민
미쓰
민진당
바스크
박진
박세
박완
방법을
배제
배후
벌금
보이는
빠진
사장을
산악
석방
설문
성윤모
세군다
소니
소독
순간
승점
시의원
신경
쏟아
쓰고
아빠
알리는
양도
어깨
에니
여당인
예측
옮겼다
우호
원인이
유공
윤씨
의자
이긴
인종
일대
일명
임택
입법
자택
자세한
적대
절차를
제고
제우스
조던
조약을
주차
중공
즐길
증언
지향
지롱
직위를
진료
진격
질의
차원의
청장
최순
충주시
카트
타임
티켓
팔라
페예
포드
한층
행위를
형식으로
호르
화제
확립
##수수
##로브
##이지
##이란
##도우
##219
##220
##224
##221
##223
##228
##226
##229
##227
##SA
##전국
##희는
##터를
##권에
##se
##sk
##루크
##역량
##아들
##시내
##인들을
##트에
##사추
##르를
##마케
##경에
##치킨
##청에
##득점
##실의
##파는
##파인
##중을
##민사
##유예
##ton
##질의
##한을
##심이
##심한
##먼드
##TC
##물로
##용을
##태후
##프라이
##연은
##슬링
##클로
##럼비아
##액을
##빈이
##곳에
##ina
##iam
11세
##한다면
##land
FC에
의원들이
자유형
국민참여
1월부터
기록하는
기록했고
##그룹은
4월에
현대제철
이어지는
중국인민
이용한
진행되었다
##니아누스
관련하여
이적을
설립하였다
##운동에
##기술원
전국적으로
사람이다
전쟁의
##체육관에서
##기관이다
사용할
사용했다
수상자
1904년
1923년
##지방경찰청장
##ish
결과로
레이더스
##고등학교를
사망하고
결혼식을
통일부
항공은
마이너
엔터테인먼트의
##정치연대
최종환
골키퍼로
박정희의
선출된
1895년
마련해
##시켰고
선발로
요구하는
건강보험
유지하고
앨범을
지금은
연속으로
혁신도시
활용해
남편인
세종시
선보였다
순천만
산하의
나오고
니콜라스
5년간
상임고
인터뷰를
홈페이지에
초청해
스토리
SNS에
스테판
NHL
모집한다
정의개발
캘리포니아주
한성부
부회장이
고교쿠
크루즈
ICT
스포르팅
문화재청
판타지오
크리스토퍼
##박람회
##보장협의체
한전KDN
페르디난트
김부겸
참조기
성황리에
안병용
잇따라
국가안전기획
송종욱
##선거관리위원회
동아쏘시오홀딩스
강용석
에인절
도로교통공단
국민체육진흥공단
네티즌
3남
3명의
5세의
6대
6세의
8시
8세의
Gen
NBC
Sch
WBS
Will
▲문재인
가스
가짜
간주
강성
개별
경북도
곳이다
관세청
교직원
국영
국악
글러
기도
김옥
김천
나고
남로당
넬슨
느낀
능력
다루
단속
대행
도네
도의원
도중에
동행
되기를
등급
뛰는
라면서
레온
로키
르브
리치
리카
마하
마티아
맡는
매주
매사추
명품
무안
무실
박수
박지원
발사
발라드
배드
번주
벌인
보상
부과
북아일랜드
붙잡
비슈
사로
사헌
살라
삶을
삼촌
상륙
상사화
생일
생존
서양
소회의실에서
손예
송유
송혜
수집
수렴
스포
승려
승계
신흥
신생
아타
아세
안았다
없었던
에인트호
여섯
오거
우하람
운용
웨일
웨스턴
웹툰
유치를
음원
의용
이소
이윤
이니스
인력
입증
장경
장보고
재배
재계약
저술
정문
주지사
중립
중세
찾은
청문
총선을
총사령관
추억
충정
충무
칭화
카친스키
캐스팅
콜라
타일러
테러
투표를
파벨
페리
편지를
펼친
펼쳤
하회
하버
한채
합계
헌정
헌덕왕
협상
화려
후기
훌륭
흔히
희극
힘든
##다스
##수부
##수스
##이코
##이글
##자이며
##기자
##지노
##지휘
##가격
##전인
##IC
##LA
##금은
##승현
##권과
##ai
##아와
##공공
##시에서
##노르트
##사이트
##하루
##문덕
##마르크
##어준
##면에서
##경의
##개로
##비에
##세츠
##무스
##토쿠
##대우
##선과
##나기
##당위원장
##실업
##만한
##카는
##카테
##파시오
##즈노
##즈미
##여름
##작업
##합의
##받게
##등록
##결과
##콘텐츠
##펠트
##구치
##구에서
##태규
##미쓰
##연의
##연히
##네마
##각을
##내며
##총괄
##GM
##DS
##별로
##겼고
##렸으나
##샤오
##뤘다
##ino
20여
##ond
18일에
14일에
200여
대한제국의
한국감
한국과학기술
##리아노
##까지의
광주세계수영선수권대회
서울형사
미국과
FC를
국민혁명
##주의자
감독과
1월에
기록은
기록이
9월에
아이를
사회민주주의
6월에
##사업으로
프랑스는
운영한다고
방송국
대학이다
##센터를
개최하고
문화를
대학교에
영국군
이적하면서
이사장이
바이든
##된다고
들어서
들어오
1905년
성공하였다
결과는
활약하며
참가해
경찰이
차지하는
결혼하여
지방선거
2007년에
황제인
##진흥공사
시리즈의
구단이
크리스티아누
생각을
기관이
1990년대
마련한
확보를
민주평통
기간을
슈퍼컵
슈퍼맨
##정책을
있었기
부인인
아나운서는
300여
히로히토
득점왕
문제에
공격수로
획득하였다
경성부
부문에서
GS그룹
제이홉
##계획을
의미를
의미가
##브리핑
안재홍
1970년대
신한민주당
올리버
제시했다
내야수이다
ISU
최영조
관심과
물러났다
김석기
스카이워
항공사로
이같은
격려했다
동원해
바뀌었다
보니파시오
차르국
##대통령후보
대표이사는
페메니나
소시에다드
에마누엘
정무부지사
제너럴
어드밴
보나파르트
크롬웰
힌두교
한국교육방송공사
을지문덕
도호쿠
피렌체
International
스톡홀름
페예노르트
WBSC
매사추세츠
송혜교
서울형사지방법원
1순위
2억
2남
2녀
3회
6일에
AP
GC
kt
가상
강요
개학
걸스
겨냥
구분
궁금
권고
그때
그랜드
극동
김순
끝까지
남부대
내린
논쟁
높이고
당명
댄스
도망
독점
동메달
등이다
떠올
레미
로이드
마그
머스크
메뉴
메트로
명백
모로
모모
몬테네
몰락
무관
바꾼
박람
베르트
별명을
부의
부근
불참
블레이드
빙그레
사리
상트
상당한
서장
서해
서일본
석사
소피아
수주
수사를
순으로
스플
신년
심판
안에서
안산시
어벤
에우
에콰
여가
였다
영역
오자와
와서
왕립
우마이
운송
원자
유효
유출
윤영
은메달을
이보
이겨
이모
이상을
자사
자격을
잡지
재편
정다
정용
조례
좌우
주앙
중에는
지단
지네
진성
진에어
징계
찍은
차로
착공
창간
첨단
초빙
최병
추존
충숙
칼초
큐브
크리에이
클릭
테리
테슬라
토대로
퇴임
티저
표시
표명
하위
하면
학원
허드
황소
회고
회사의
후일
힘들
##oo
##다른
##서가
##자고
##기본
##기압
##산에
##지검
##영이
##영준
##교한
##전철
##전에서는
##IN
##형의
##리브
##az
##역사
##스벤스
##동석
##시절
##인가
##노피
##군으로
##코가
##메드
##진구
##호진
##정상
##비로
##니츠
##세자의
##토의
##토록
##대변
##대병원
##선언
##더슨
##광산
##식스
##업무
##화는
##여고
##합한
##받을
##등의
##드에
##드림
##미트리
##행사를
##칙을
##웨이트
##현은
##현과
##현왕후
##십을
##언론
##봉사단
##캠프
##찰을
##맞이
##환이
##흐마
##변을
##놓고
13세
21개
23세
한국독립
1992
1997
경기의
선수의
선수인
지역으로
리그가
조선민족
소속팀
아이작
아이언
우승팀
##사업은
프랑스군
참석하였다
문화유산
이사장을
##산업의
실시했다고
실시한다고
시민단체
하나금융투자
사용하고
##관리공단
1901년
성공회
1914년
여수광양
진출한
출전하지
사망했다
박정호
시절에는
김성준
개발에
##도시철도공사
항공의
일부를
발생했다
총선에
울산항만공사
이동진
지지율이
이재준
즉위하였다
연합군
데이브
소속사인
슈퍼스타
분야에
기획재정위원회
복귀했다
변경되었다
6세가
순천시는
분석한
중요하다
오스틴
고구려의
확인할
합의했다
이듬해인
불가능
유진기업
보이지
수준을
이수진
##스테이트
이성호
플레이오프에
플레이오프에서
선생의
달러를
회사이다
도움으로
자체가
스테파노
야마모토
갈등을
이것이
불리며
약속했다
나누어
박상철
안토니
아우구스트
강남구
이벤트
서태지
유대인
활발한
안타까
국가보훈
완주군
이춘석
브레이브스
트리플
크리슈나
정확한
Leon
식민지
유키오
무엇보다
IBK
아우구스투스
##상규명
기재부
남조선로동당
한혜진
이만희
호응을
언더우드
워크숍
팔레스타인
압도적인
미스틱
볼프스부르크
올림피아
무승부를
농촌진흥청
WK리그
황의조
막시밀리안
아끼지
캐서린
그럼에도
미식축구
야놀자
에피소
르브론
몬테네그
에콰도르
우마이야
##스벤스칸
1대
2명
3천
3으로
3학년
7기
8일에
Ale
A매치
Bra
Do
DOC
EC
He
KNN
NL
SL
Wh
e스포츠
감시
강혜
개성
개원
게이트
겪는
계비
고성
공신
과학자
광장에서
교내
교환
구리
근대
김문
나눴
날을
남인
노엘
노이어
다해
다비드
당주
당해
대령
덕분에
델루나
도약
도교육청
동학
동메달을
되었지만
두루
드럼
드미트리
디젤
딸을
러요시
리얼
릴레이
마닐
마요르
맞게
매니지
멜버
모르
모나
민형
민씨
밀워
바트
박시
박탈
반대로
발라
배터리
백업
법안
벤투
보헤
보이며
본인이
부폰
부담을
분산
블록
빌보드
삿포로
상장
상해
상실
센고쿠
송도
송중기
수호
스가
식약
신입
신제품
실적을
싶은
아디
아테
아미
안티
어제
언어
여파로
영유
영등
오라
오노
우르바
유신당
은메달
이채
이바지
인기가
일족
입었다
자코
자립
자극
자민당
잠재
저감
전도
절친
점이
정희
정빈
존경
줄어들
중대
중학교
증명
지질
진짜
짧은
책봉
청원
청룡
체계를
최후의
추측
측정
친척
침체
캠퍼
케임
코믹
클로
택시
토지
퇴위
파인
파파
팬들이
펜실
포워드
플레
픽처
한예슬
해석
호크
회사를
후기의
흥행
##수한
##서와
##산드로
##성수
##직한
##가수
##터는
##형이
##ain
##친화
##양성
##스파
##스킨
##아리
##아키
##순이
##그래
##건축
##마에
##마켓
##어와
##보에
##우주
##우키
##우스의
##경선
##정규
##비트
##비서관
##니스와프
##론이
##론의
##토가
##토바
##대부
##대왕
##학부
##선에
##실히
##었기
##누스는
##국사
##국토
##페테르
##슈티
##민과
##한테
##처리
##운전
##TO
##계와
##계열
##베리
##애국
##편으로
##구로
##레는
##브리지
##격으로
##거슨
##현악
##품질
##반민족행위
##협상
##강당에서
##피스
##총연맹
##GO
##란을
##목을
##왔던
##률은
##델라
##층의
##싸고
##ini
##ince
##하였기
##00억원
일본에서
##되었다가
리그컵
조선시대
조선공산당
국민이
국민회의
시즌2
우승과
교육과
대학에서
연구를
시장에서
중앙일보
이사회
설립하고
국회의원과
영화를
것이라
사람의
우리의
사건의
들어간
행정복지센터
##정보화
처음에는
활약했다
참가하는
KBL
클럽으로
새로운보수당
노무현의
##협회가
창당에
마드리드는
마르쿠스
최종적으로
역사적
이동국
광주시교육청
구단은
기관으로
KBS2
전달했다고
##바이오
작곡한
영향력
##000만
지휘하는
기여할
출마하여
사진이
4세와
타이거즈의
운동에
지명타
지명했다
출시한
가족이
검찰이
1980년대
작품을
전남도교육청
2020학년도
음반이다
확정했다
존재한다
State
감사하다
규모로
NCT
나오는
제출한
어린이집
이지아
현지시간
신동빈
##지도자
부진한
후계자
아들이며
부산광역시교육청
스트라이커로
비틀즈의
시스템을
교류를
친일반민족행위
비난을
인디애나
##프레드
밝혀졌다
근거로
인근에
페이스북에
노부나가
요리토모
##연수원
테오도
받았으나
삼국사기
주한미
연수구
차별화된
법원행정
정경두
글래스
여객철도
사항은
한국수자원
쌍용건설
공정거래위원회
부장판사
누리꾼
워너원
최태원
한국환경공단
전태일
관동군
경진대회
온타리오주
스탈린
최연소
헬로비
메이크업
더글러스
르네상스
돌고래
베오그라드
거머쥐
법제사법위원회
에인트호번
##카테리나
지네딘
매니지먼트
멜버른
1위로
2AM
2NE
3D
3위를
5시
7시
BI
Cla
Har
KC
Lu
Sam
강타
격상
경신
경향
고정
고든
공양왕
과장
과의
국산
국장
국회를
김학
김국
김혜
김춘
나자
난징
남한
낭만
내걸
네오
농산물
뉴이스트
늘어
닐스
단원
단국
달콤
담아
대북
대상을
도서
도달
두료
뒤집
듀오
디렉
디디에
레이스
루크
루프트
리미트
많아
맥스
맥주
맹활
머리를
명명
몸을
문정
물류
바예
바꿔
박문
발효
방출
배달
백제
버펄
베텔
베른
별도
병력을
보잉
볼로
불을
불편
뷰티
비치
비토
비서관
사보이
산타
삼고
샬럿
선별
성을
세부
세조
손해
수장
스와
슬하에
시의
신영
신조
신채
신시내
싸우
썼다
않자
않았던
알하
어떠
얼스터
얼라이언스
에스토
에티오
연관
우에
원수
위안
위그
위생
유상
윤형
인피
인연을
일곱
임동
입원
장문
장준
장정
장군이
재혼
저서
저소득
전재
점점
정준
정병
정찬
정운
조이
조경
조니
조속
주체
집에
처분을
축출
출간
측의
카니
카스트로
컨설팅
컨소시
쿠빌
토스카
통계
트레
파주
파드
피츠
하트
하는데
하기도
학과
함영준
항소
해병
해밀
해트트
화재
확충
##ris
##다의
##수록
##로써
##로스의
##서양
##서의
##부원군
##이게
##이었으며
##제이스
##직자
##교부
##원군의
##SPA
##가드
##가이자
##적은
##리얼
##ah
##발디
##일간
##노는
##코의
##조차
##주주
##상욱
##신인
##진료
##임이
##포구
##약품
##고의
##토미
##더니
##차에
##AO
##카의
##분의
##계승
##프스키
##KA
##졌지만
##윤호
##섰다
##orld
한국에서
한국원자력
선수들
##대학교는
##대학교에서
지원이
현대중공업
제1군단
사업비
세계의
방송에
대학과
개최를
제국은
전라남도는
회장으로
위원장으로
국회의원에
추진을
추진한다고
인천항만공사
코로나19의
가수이자
##드리게
사람들은
기업이다
사용한
국회에
##사회주의
사건이다
1911년
대회인
##경기연맹
진출하였다
결정에
##개발은행
왕국은
왕국이
결혼을
##지역에
조지프
아시아축구연맹
##경제부
역사학자
선출됐다
어머니인
김영삼의
기술이
마련됐다
영입하였다
수원시
##시켰으며
보도에
블루스
블루제이스
출마하였으나
베이비
준비하고
4세가
미드필더이다
인물이
소련군
금융위원회
금융감독
##활동에
새정치연합
드래건
히로부
음반을
Char
회의에는
KIST
트로피
제기한
이시종
대부분을
전년대비
탈당하여
실패했다
500만
명칭이
김용범
##사이드
김병내
상임대표
시설을
정종제
이강훈
1960년대
이래로
재난안전대책본부
클라우
다카우
##라트바흐
김정일의
장학금을
대우건설
법무법인
행동을
서명했다
훗날의
준우승에
경선에서
낙선하였다
조선의용
권한을
스피드
신속한
여기서
유인나
동서대학교
스톤스
식품의약국
철저한
LINC
다이노스의
국정감사에서
편의점
정읍시
유성엽
윤석열
도덕희
최규하
안드레스
모으고
거리두기
유러피언컵
Love
긴밀한
##변호사
앙투아네트
레오폴트
문선명
CJ제일제당
진심으로
김아랑
문민정부
국가안전기획부
William
사로잡
상트페테르
민형배
우르바노
케임브리지
한국수자원공사
2NE1
두료다
리미트리스
신시내티
에스토니아
쿠빌라이
해밀턴
해트트릭
상트페테르부르크
1시
1심
5번째
7대
7일에
Ad
AV
Fo
FS
Go
Gr
KR
Lea
Net
Sw
Sci
UA
UBS
감축
강의를
강지환
거제
거두고
검사를
게리
경산
경질
고코
곡성
곳으로
공의
공의회
관찰
관리를
광서
교장은
구원
구독
군이
귀농
그들이
기장
기동
기독
김서
김보
김남
김덕
김어준
깜짝
나란히
납부
낳은
내내
노사
높다
다녀
대교
대기업
돌핀
동시
동명
되는데
두었다
라울
레나
로비
리눅
마테
막아
만한
말해
말고
매진
멀티
모은
목격
묀헨
문효
미겔
미노
민의원
밑에서
박인
반복
반환
발해
발명
발달
법정
별도로
본사에서
부합
부쿠
북방
분명
붙여
비트
비주
빌라
살고
살려
상급
송일
수리
스퀘어
신하
심장
아부
아비
아람
아라고
안보
안치
않게
앰버
없고
여사
역으로
연재
예카테리나
오고
웃음을
원광
위상을
유산
유배
의빈
이규
이들이
인적
인턴
일상
자금을
장지연
저장
저명한
전소
절반
정미
정당이
정계에
조언
주역
주간
지리
직전에
진정
진평
집에서
철거
체르
체감
최대한
충혜
칠레
캔자스
코스타
쿠바
쿠웨이트
크레
터미널
통상
특집
팀에서
파나
페루
페데
편찬
표기
표를
핑크
한수
한경
한빛
해피
해군의
헤어
호노
호조
호크스
효성
후진
후퇴
힐링
##ek
##은희
##라면
##부품
##부지사
##이즈
##이엇
##이었지만
##자본
##MP
##전당
##형제
##타라
##ac
##aw
##OO
##으려
##스런
##스카이
##시도
##코모
##조명
##석으로
##사람
##하에서
##마저
##어야
##보스
##소와
##소스
##소나
##포니
##우와
##경쟁
##호정
##량은
##니가
##고한
##세븐
##론은
##토론
##선우
##나갈
##버러
##되던
##카를
##카리
##카쿠
##티는
##홈런
##통이
##통의
##민아
##민턴
##작을
##감사
##합을
##받침
##등이
##드백
##TT
##냈고
##생태
##물의
##용준
##브나
##미에
##미사
##프도
##볼연맹
##음이
##재산
##ph
##por
##머런
##백만
##살이
##홍보
##츠가
##불교
##곡으로
##저지
##링턴
##훈은
##색을
##히고
##혜왕후
##렉스
##커는
##텍스
##둥이
##빌로
##템베르크
##큰롤
##첸시오
##ial
10일에
11년
11일에
##하였을
16년
17세기
200여명이
한국GM
1996
1999
대표발의
선수다
선수들은
##되었다는
40여
국민연금공단
12월에
지원한다
시작했으며
했다는
독일이
참여할
진행했다고
개최되는
##방송통신위원회
전라남도와
전라남도체육회
대학교와
라이트
설립자
설립을
SK브로드
경기도청
전국동
교수의
이상순
25일부터
하나가
주장한
김대중이
경제학
출연하는
계획에
유럽의
##시장과
포함된
LG유
대전광역시
출전하였다
차지한
고려의
시절이던
체결한
##도시로
지방을
일부는
조성민
마르그레
발생하는
##시키며
선출했다
제공한다
광주시의회
1898년
2003년에
선언하고
선언하였다
31일까지
나이키
언론에
프란시스코
박근혜는
1999년에
2차전
예비후보가
자리잡
검찰은
검찰개혁
전남도의회
드러났다
박재범
오스카르
언급한
언급하며
메이저리그
##과학기술원
1841년
선보인
선보이며
동구남구
지배를
경험이
달러의
##데이터
훈련을
사태가
콘스탄티
추천을
이르렀다
##ung
솔로몬
최진실의
사과했다
김유신
고등학생
그런데
Robert
분위기
분위기를
이사벨라
AOA
미야자키
대원방송
윤종신
형태로
관람객
##코치이다
고이케
댓글을
안드레아
또다른
비스콘티
에스파냐
오페라
스페셜
동점골을
김여정
광해군
제21대
다마스쿠스
나뉘어
흥선대원군
플랑크
Korea
줄어든
##장로회
오케스트라
클라이맥스
우디네세
송갑석
의열단
자민련
흐루쇼
박서준
플레디스
도네츠크
오거돈
에마누엘레
클릭비
밀워키
에티오피아
묀헨글
부쿠레
1사
2학년
3번
AT
Bro
Cou
Cent
FNC
JR
JB
Mich
Rich
SE
World
You
간에
강동
개로
개장
개정을
거대한
견제
고조
고영진
고상환
곳이
공영
공조
공포
광저우
교구
구사
국세청
군대가
권지
권리를
그만
기안
김산
김양
김복
남겨
넷째
농가
다다
대승
대도시
더콰
뒷받침
드라
라자
라트
로큰롤
리메이
마시
만의
맡는다
맡았던
명확
모니
바비
박승
반공
발을
배신
벌교
법흥
병역
보낼
보해양
본부를
불린다
블레
비중이
빌려
사반
삼프도
생명
생애
서경
선화
선봉
선덕여왕
설정
성명
세대
소수
소요
소크라
쇠퇴
스왈
시노
실업
실내
싶어
안영
안테
안호영
애로
앤서
약탈
양산
어우
엄홍
여야
여흥
연이어
열릴
영주
오버
요새
우상
우정
우한
원에
원조
원주
위축
유리코
의거
의장은
의장이
의지를
이언
이븐
이니에
인노
인생
일정을
작전을
장례
저질
저스틴
적발
전정
전차
전하고
점포
정관
정약
정선
조제
조상
조항
조메이
좋지
중종
직면
진해
진급
질문에
집을
차민
참의원
천계
천재
청구
체제를
초상
총무
최승
출국
치안
카드를
캐머런
컨퍼런스
쾰른
토르
투신
파워
파스
판결을
패러
포켓
포스터
피어
하사
하니
함경
합리
허락
협업을
형인
홍무
홍명
홍범
화훼
후작
##이후
##위기
##가시
##IST
##터즈
##형문화
##리네
##타는
##발언을
##양을
##스에게
##아메리카
##그라
##상경기연맹
##사르
##하메드
##어의
##보면
##임대
##정제
##비키
##년에
##항쟁
##니까
##고을
##무트
##대리
##나은
##버스터
##화한
##티식
##유는
##유를
##출신
##질환
##법이
##법의
##체계
##분권
##율은
##RE
##브로
##방의
##태를
##책임
##축은행
##송을
##키지
##졌으나
##강의
##글라
##돼지
##박한
##근무
##탄을
##풍을
##샤르
20일에
12일에
18대
15개
14개
22일에
30일에
24일에
있다가
한국교통
광주지역
대표인
##4년에
함께한
선수들과
##대학교를
대통령비서
이후의
미국은
##되었다고
##eal
##라이트
3월부터
2세에게
아이디는
제1대
##사업이
세계적
세계야구
출신이다
관계기관
러시아군
##이스케
이름의
천황을
국회의원을
선거에서는
인천시
아르투
발표된
그러자
##발전을
사람을
기업을
실시해
롯데쇼핑
관계자가
김정호
사용하여
20일까지
경제산업
동안에
1900년
1913년
2009년에
활약했던
##문화재단
13일부터
중심이
참가하였다
체결하였다
김성진
창당준비
항공기
도시를
왕조는
조성에
다음으로
환경을
결승골을
돌아갔다
학교를
어려움
기대감을
기술을
영입했다
지휘관
유니세
베이직
인정했다
프로듀싱
건강을
##베이니아
국무조정
시행하고
등장한
경쟁력을
변경하였다
바르셀로나의
##이라도
해당하는
시간이
대비해
건설을
연고지
창단한
요시노
트레이드를
김동찬
감사패를
규모가
크로아티아의
사령부
통일민주당을
유진산
김일성은
이지은
지도자이다
제이슨
정은지
엘리자베
MC로
재난안전
김구라
올리며
콘스탄틴
업체인
브라운슈
마스크를
이루어져
Inst
케이블
플로렌
NH농협
모집한다고
갈등이
인디언
##정우회
간담회
북구을
여론조사
티베트
재단법인
손병두
소송을
##아내고
프로게이머로
진흥왕
방침이다
둘러싼
라이프치히
세븐티식
이혜원
비스마르크
클레멘
글래드
브래드
##작전사령부
무덤인
CIA
정진운
한국수력
이틀간
##사회복지공동모금
##유통공사
노스웨
스윙스
트랜싯
루도비쿠스
트래퍼드
아랍에미리트
호나우두
엄청난
보도자료를
메드베데프
나이지리아
정의개발당
손예진
여수광양항만공사
식약처
펜실베이니아
##정규직
컨소시엄
부쿠레슈티
더콰이엇
라트비아
이니에스타
인노첸시오
1집
1녀
2경기
3녀
4일에
4번째
5선
5만
AG
Don
Dav
Ed
For
JTV
KE
LNG
NFL
Ph
Part
SG
Tr
UFC
bh
가평군
감정
강성훈
개회
개헌
갱신
걱정
결심
고트
과반
굉장
구형
군부
군사를
권리
급속
기생
깨끗
나라를
내야
노보
농식품
놓여
닌텐
다닐
대관
대단
대출
대명
대패
대승을
더해
돌봄
동영
되면
되돌
뒤로
떠오
뜻깊
랄라
래리
러블
로맨
만전을
말하는
매장
맥도
머무
먹고
멀리
며느
모르는
무상
무로마
문보미
밀레
바뀐
바샤르
박흥
버밍
베아트
보험
보이스
보궐선거
부영
부르는
비하
사쿠라
살펴
샌디에
성주
성씨
세레
소형
소리
소주
소셜
수수
수산
수소
수완
숙의
스콧
시몬
신군
신해
실망
씨제
아카
아바
아스트로
안도
안인
압록
양주
업적을
없게
연령
열심
오가
오승
오마이
왓슨
왕인
외조
우고
원활
원하는
원인철
유권
육성을
율리오
은지원
이양
이갑
일은
일에
일가
일선
임재
잇는
있음을
자랐
잡았다
장난
장인
장비
재벌
재계약을
저는
전수
전보
전액
전한다
절감
정창
정옥
정순
정국
정씨
정근
제리
제의
제약
제명
조종
중계
진선
차인
책을
천태
체제로
총동
총장이
총리는
최인
축산
춘천
출가
출입
카렐
캡틴
쿠루
탈북
탈환
탤런트
퇴직
트랙
특화
포착
폴리
푸르
품고
플라이
피고
필두로
하차
한가
한해
한민당
함대
해도
행사가
협상을
호를
화학
힘쓰
##oc
##서에서
##이로
##력으로
##자들과
##자금을
##들에서
##들이다
##기사
##성전
##성한
##도동
##지기
##지스
##지마
##지윤
##원수
##SE
##전거
##금의
##리던
##장막
##회사가
##워스
##sh
##루를
##공고
##인들에게
##군에서
##트랙
##석과
##석에서
##건에
##신청
##마사회
##어리
##소설
##소비
##포털
##우산
##경왕후
##개정
##비스의
##니시
##치기
##치게
##세상
##토니오
##청장은
##되도록
##실과
##차별
##디우스
##카미
##JB
##여서
##여행
##테랑
##판은
##심과
##분간
##분으로
##운수
##TN
##구단
##레가
##함이
##연한
##외교
##점의
##칠리아
##강화
##ba
##남부
##de
##져스
##았는데
##모가
##바우
##목적
##ward
##환자
##끼리
##쳤으며
##enn
20세기
10년간
15대
##ATO
한국정보화
한국마사회
경기로
경기장에서
광주방송
일본은
프로에
프로게임
후보자로
국가를
국가의
소속이
국제표준
현대캐피탈
이어진
삼성S
독일인
배우자
참여한다
운영해
관계에
이용하여
개최하였다
장관에
장관의
시장의
##대학을
설립되어
국회의원은
선거인
그룹을
100여명이
아르카
##연구회
##ank
멤버인
##산업을
시민과
20일부터
월드시리즈
야구단
2008년에
레이건
대회이다
활약으로
##시장에서
예정이며
정의당의
##위원장으로
정책과
##레스티노
루이지
##chn
최근에는
이승만과
투수가
인사들은
올림픽에서
##이나마
즉위하자
구단의
구단주
어머니가
김영삼과
필요가
취임한
여수시는
우수사례
경우가
입단했다
##대책위원회
확보했다
##협의회장
##공항공사
변호사는
출시했다고
5세와
모델이다
뮌헨은
요청을
엘리트
의혹에
계열사인
##전문대학
회의실에서
문화체육관광부와
문제는
채널에
전략을
전해철
제출했다
불가피
500여
명칭은
소유하고
김원중
발견한
상태로
이수현
기부했다
광양시는
##평가원
##아시아나
강력히
올리브
판단된다
##업체인
##거래소
대동병원
NHK
반발하여
파울루
선제후
정의용
방영된
예수회
##선대위
##프레시
문성유
지내고
공동대표로
김명중
리니지M
스파이
지냈고
인증을
조승우
##호텔에서
비밀리에
신천지예수교
제목으로
증거장막
노동자당
##otball
USL
동서대
초반에
테레사
서울중앙지방법원
둘러싸고
변신하는
최강창민
동일한
일어났다
그려졌다
민선7
파라과이
제주특별자치도개발공사
##루이지
홈구장으로
이어가고
누구나
포스트시즌
대통령직속
농업기술센터
호흡을
놀라운
송영길
압둘라
구수왕
마인츠
페널티킥
조반니
기쁘다
칭기즈
호찌민
외교통일
이찬혁
조광한
토요타
요시히데
박마리아
슬리피
허위사실
에니올라
카트린
나고야
배드민턴
어떠한
기안84
앤서니
어우러
브라운슈바이크
한국수력원자력
bhc
무로마치
샌디에이고
씨제스
1승
2주
2일에
4명의
600
9일에
ABC
DS
DC
EU
Fr
James
NO
RB
Se
Tor
TJB
We
가해
각별
간도
간편
감자
감사를
강영
결합
경유
계정에
고마
곡은
곡으로
공안
공지영
곽지영
관세
구장
귀환
그루
그렇
기회
기습
기사를
김만
끊임
내의
내무
넣은
노국
노브
논문
농어촌
다말
다운
단지
단편
당사
대막
대강당에서
댈러스
데니스
데일리
델라
되찾
딸이다
때에는
뜨거운
라우
라오
로드리게
리듬
린든
마법
막부의
말로
말기의
맞추
매월
맥아
맺어
멜로
모친
물어
물었다
바꿨
박희
박형
박명
박연
박물관
방해
방향을
배틀
배재
백인
병원장
부속
분들이
불출
브람
사비
사카
사돈
상가
상공
샤이니
석유
선의
선우
성명을
손나은
쇼니
수십
수능
스케
스쿨
승부를
시위
시아
시미
시켜
시니어
신격
실종
싸이
아브라
아제르
않다
앙드레
양해
어워드
없애
에미
에프
에반
엘사
예브
오지
오릭스
오슬로
옥스퍼
온실
옹호
왕이다
읍면
의석
이형
이아
이조
이문
이송
이돈
이브라
일단
일대에서
임무
잇달아
장영
장희
장항
장려
장미
장쩌
재창
전술
정헌
조순
조주
조커
조태규
주기
주자로
죽을
죽이고
중기부
짐바
차장
차트
차질
창작
첼레스티노
총장을
최문
최저
최호진
추경
충격을
치유
치렀
카고
카툰
커플
컨센
코난
코레일
콜센터
쾌거를
탄소
탑재
토로
토벌
통화
파키스탄
판사
판디아
패트릭
퍼스트
퍼거슨
페레스
페드로
포츠
포털
프리스
하랄
하시
한용
행사로
허은
허창수
협의를
협조를
호치
혼다
황족
후의
후견
휴대전
힌덴부르크
힐러리
힐스테이트
##rich
##라리가
##수리
##자료
##자연
##기동
##기능
##기에는
##산에서
##과장은
##지엠
##EV
##가람
##IX
##LO
##금지
##형은
##타임
##발라
##발표
##시한
##시장은
##일레븐
##련의
##트레이
##메오
##메네스
##사촌
##르겐
##르템베르크
##보살
##보컬
##소통
##우회
##우현
##호르
##정지
##정비
##고가
##청의
##삼진
##더맨
##나가는
##당선
##되게
##실천
##차전
##열병
##화재
##파티
##파베이
##육성
##테이
##테쓰
##크가
##크리
##크루
##결산
##체로
##분석
##월한
##TY
##족이
##울리
##번은
##생물
##용이
##용품
##브웨
##방과
##미와
##미칼
##음에
##현실
##연료
##외과
##ma
##머리
##탈리
##ier
##ius
##홍철
##농민
##uel
##님이
##킨스
##곳을
##빌리티
##렬한
##왜란
##itut
##int
##inci
##att
19세기
18개
16세의
한국을
##에게도
선수단
##스트라를
##대학교에
대통령인
##회의소
일본어
프로덕
조선대
국민을
국민안심
##였다고
되었다고
##교육원
##그룹이
##되어야
아이콘
##되었을
이어졌다
##사업회
삼성물
자신에게
프랑스에
프랑스에서
참여했으며
세계대전
대학으로
개최한다고
연구개발
문화경제부
시장에
영국에서
중앙부처
중앙선거관리위원회
국회의원이다
추진에
##지원을
##학자이자
사람들의
##산업진흥원
데뷔해
전쟁은
18일부터
3세와
##안전공단
광주광역시장
교황으로
##사회적
##ald
3일간
주장하고
27일까지
올해는
올해도
수상하는
1902년
2017년부터
상황실에서
2008년부터
레이던
19일부터
대구도시철도공사
진출하여
2014년부터
결정하고
제작자
결혼하였다
김성훈
임명되었고
국립과학
국립공원
투수로
결승전에
돌아오
위치하고
이재갑
2005년부터
시리즈를
1896년
생각이
##바이잔
##베르그
필요성을
선언한
1888년
전주병
이루었다
베이커
인민공화국
청와대에서
한나라당의
구축하고
평화의
2차전에서
피해자
정권에
전망이다
전망된다
명예를
에이브러
은퇴를
레드삭스
마을공동체
고용희
파리에서
1차전
1차장
발매된
혁신을
센터장
채널A
예방에
확정지
노래를
프로젝트를
행정안전위원회
희망의
밴드이다
탈당한
선임되었다
박주현
이기고
서구을
중화민국의
상태에서
김해영
알리기
김진태
##종합운동
네이션
과학기술정보방송통신위원회
박성일
판단했다
벨기에의
이병철
집행유예
투입해
인재를
청나라의
합당하여
장악한
약속을
나누고
투표에서
왕족으로
우주안
지키고
콘텐츠를
게이밍
겨울철
이대호
가까이
라인업
꾸준한
도미노피
금호아시아나
8강에
1930년대
레인저
보르자
얼굴을
송하예
연극배우
주축이
해적당
프란체스카
이준용
IMF
한국농수산식품
일조했다
국정감사
조명래
본부장은
유영하
무료로
고지용
마이크로소프트
마르크스
오디션
이철우
하드리아
빈두사라
대학일자리센터는
송병구
가쓰야
김택용
CCTV
NASA
스카우트
동상이몽2
니키타
예결위
임진왜란
몬스타엑스
반민특위
세종특별자치시
정광용
혜공왕
세월호
앞세워
조병옥
중국인민지원
에인절스
하버드
훌륭한
국가보훈처
Leonardo
마닐라
Football
League
Science
아라고른
페데리코
묀헨글라트바흐
권지용
유니세프
러블리즈
민선7기
다말스벤스칸
아제르바이잔
옥스퍼드
정헌율
짐바브웨
허은철
에이브러햄
1학년
2개월
3부
3일에
3위로
4선
4명이
4학년
4인조
7회
8대
9년
Bla
Du
GG
Her
Ky
My
MS
MA
NATO
OK
PP
SF
TOP
WW
가칭
강서
갤러
겐지
격퇴
결집
경의
경덕왕
계엄
고노
고립
고묘
골프
과도
관리에
괴링
교회의
군을
그간
김치
김미
나아
나나
나갔다
남도
남베트남
넣어
노다
논의를
니에
닛폰
다채
다중이
달려
대위
대조
동화
동백
드로그
따로
라쿠
랭커
럭키
로봇
루머
룩셈
마카오
만세
메릴
모욕
목록
목사가
무력
무가
무학
문명
바다
바덴
받기
배급
벤츠
벤틀리
보어
복원
복무를
본다
본인의
부지
부적
브루스
사기
사옥
산체
샌안
서민
성희
성종
성종의
셀림
소이
소닉
손녀
수습
숙박
스태
슬레이
시키
시네마
신지
신곡
신학교
쓰러
씨에
아야
아브
아케
아쉽
아들의
안성
안젤
안드로
않겠다
야간
야드
양수
양세
양대
얘기를
없지만
엘라다
영원
오종
왕을
외손
우체
우리는
원정에서
월간
위민
위치를
유다
유노
유죄
음모
의정
이룬
이남
이치로
인드라
잃은
임현주
임지선
자작
적자
전광
전념
정민
정한
정도의
정조의
제후
제압
제24
제도를
존속
줄리아
증손
직원이
직책을
집회
차은
차명
차단을
초기의
취재
친분이
캐벌
캠퍼스
컨벤션
콩고
크누
토마
패하고
패하였다
페라
페퍼
편리
편안
포로
풍부
피트
하키
한라
한동안
해명
해명했다
해수부
허정
헤비
호칭
홍사
황주
황해
황민
횡령
훨씬
흐름
흑인
##ya
##라빈
##수행
##로에
##이면서
##기원
##기탁
##성도
##MS
##가르
##금주
##amp
##의정
##동부
##동물
##시장을
##난다
##일부터
##인증
##인에게
##조치
##메트로
##ner
##주와
##설비
##설명
##사오
##신탁
##하가
##마쓰
##어넣
##보레
##소한
##소독
##호와
##고로드
##데오
##대석
##대항
##선교
##나르
##나라는
##버렸다
##NL
##차의
##차적으로
##규제
##게르
##쇼다
##화수
##화하는
##국에서
##JK
##출산
##판이
##판매
##북부
##드라마
##체의
##체인
##분과
##명왕
##쿠버
##계로
##베니아
##물이
##물에
##물리학자
##센트
##레아
##레알
##책으로
##셔서
##놀로지
##러스터
##케미칼
##키스
##길이
##내지
##ies
##총회
##by
##침을
##평론
##왕으로
##른스트
##DP
##란은
##바다
##바시
##달라고
##달라는
##투스의
##톨로
##측의
##저축은행
##환은
##환과
##짜리
##몬스터
##넬로
##ite
20세
17개
17년
대한국민
한국과
선수에게
서울로
##회의에
조선중앙
##하기에
국민에게
국민들에게
소속인
12월까지
활동했고
활동했던
5월에는
아이티
##하면서도
제1기
자신은
자신과
교육장
프랑스와
중국인
진행되는
사이클
##센터장
제국주의
회장인
위원으로
민주당이
이적했고
선거법
선거구
추진한
전남지방경찰청
스타벅
사람들을
사람들에게
이승윤
실시간
하나은행
방문하는
2일부터
경제협력
2016년부터
23일부터
22일부터
사실은
사망하였다
사망하면서
결정하였다
왕국에
##che
베트남의
##도시우스
투수이자
박정희는
울산광역시
시리즈에
제공하기
크리스티나
기술보증기금
이정옥
2003년까지
인터내셔널
1995년에
이미지를
전주방송
확보한
김현철
하였지만
베이시스트
협력하여
행사에서
공화당의
시행하는
인도의
CJB
브랜드를
유지할
출시했다
위원장인
예산결산
국왕으로
##이익은
검찰에
명예의
보내고
1993년에
보여줬다
3년간
1875년
총재로
영상에서
하여금
전략적
##소프트볼연맹
내각의
경성방
공모에
이시언
선보인다
교육감은
개혁을
전해진다
한국전쟁
이인제
핀란드의
상대적으로
Unit
전반에
지역사회보장협의체
축하했다
스코틀랜드의
프레데
김해시
아프리카TV
연세대
엔씨소프트의
제시한
코치이다
마음으로
아마존
##르바예프
유치원
개막전에서
입당하여
귀국한
한국남부발전
후지코
대중음악
김창룡
본선에
에버랜드
변화와
지키기
건의했다
북구갑
지시했다
플라멩
얼마나
기자회견에서
해리슨
서태지와
테오도시우스
박병석
이화여자대학교
평화민주당을
고향인
슬로바키아
안타깝
연남생
해설위원
트라야
ADB
판타지
심사위원
##재판소
그래서
조금이나마
##플라자
애슬레틱스
잘못된
장덕수
구체적인
그랑프리
아기날
허영인
홍문관
##예수교장로회
동신대
성폭행
대대적인
동북아
신분당선
애덤스
홀로그램
시내버스
아약스
제14대
교섭단체
오재원
유스티니아누스
권익현
후지와라
카운티
##지니어링
프로모션
강호동
과르디올라
심지어
충무공
화려한
한국감정원
레미콘
나눴다
법원행정처
헬로비너스
나자르바예프
베텔게
신채호
장문복
해트트릭을
캔자스시티
마르그레테
삼프도리아
세계야구소프트볼연맹
Institut
열심히
진선미
프로게임단
스파이더맨
증거장막성전
대막리지
한국농수산식품유통공사
라쿠텐
룩셈부르크
샌안토니오
황주홍
1경기
2명의
4번
5로
BB
Can
Dra
Dan
Ex
Fin
National
Pap
Qu
TH
YTN
e편한
가라
각계
갈릴
감면
갖게
개종
거기
것임을
경시청
곤살
공과대학
과정에
구호
구출
군정
군민의
귀성
균형발전
금정
기요
김근
나윤
내무부
노원
노리
노영민
농어
높였다
니스텔
단절
단장은
달아
달빛
당진
대니
대의원
도너
도의회
돕는
두려
드레
들이
따서
때인
라이스
로베르
리에
리모델
마마
막판
막부는
만델라
많았다
매직
면세
모교
모금
모문
문경
문지훈
미얀
민사
바가
바리
박두
박애
발돋
방식
버지
버튼
버렸다
벌여
변화를
별세
병력
보리스
본토
볼을
북베트남
브란
블로그
빅데이터
빌바오
빨리
사가
사절
사과를
산투스
상관
새한
생겨
서진
서아시아
서대석
석권
선방
성격
세자
소르
소현
수락
수송
슛을
승용
승무원
시복
시위를
신형
신대
신작
신체
신예
심리
아역
아즈
알론
알파
알베르
애스트
앤더슨
앨리스
야쇼다
없던
에렌
여행을
여배우
연상
연료
영농
예언
오영
오신
오리지
올리는
와타
왕은
왕세자
우스타
위에
위문
위르겐
유저
윤승
윤선거
이관
이룩
이뤘다
인문학
일컫
일하고
자라
잔여
재미
재조명
저격
전복
전하며
점유
정수
정조
정해
정체
정황
정당의
정교회의
존중
종식
종결
주먹
중지
중동
중순
중퇴
즐거
즐거운
증조
지그
지사
지부장
직계
집필
차세대
참패
천연
초기에
추종
충족
충목
칭찬
카림
컨트리
콘셉
콜린
키스
태영
태프트
탬파베이
통보
퇴진
투자를
특검
팀버
파운드
판사를
패하며
패스를
펀치
폐기
포에
표방
표했다
하라
하프
한니
해인
해안
해주
헌혈
헤카
헬무트
현장에
협주
협박
협동조합
호프
홍승
화산
훔볼
휘하의
흥덕왕
##수목
##로와
##서부
##이슬
##창의
##자리를
##자네이
##성왕
##성에서
##지점
##제한
##교사
##희망
##sen
##OM
##스투
##아파트
##공작
##노바
##노비치
##메이트
##석유
##na
##ney
##gon
##주일
##주석
##설립
##단이다
##상훈
##팀과
##사위
##사이다
##르모
##마라
##어져
##진으로
##보기
##해가
##정수
##비디오
##항공사
##고시
##치유
##효율
##간사
##간호
##데자네이
##토레
##대인
##대대
##삼다
##삼촌
##더라
##더가
##나타
##차는
##디와
##컵을
##누이
##카드를
##화해
##화하고
##국어
##래시
##중이다
##통운
##ver
##혁이
##집행
##한데
##섭을
##명이다
##운트
##젠베르크
##퍼레이션
##족은
##견을
##방지
##됐으나
##볼을
##텔라
##거스
##거리를
##재의
##현우
##연으로
##KO
##탈레
##패의
##살의
##살인
##채널
##바가
##바야
##블레이
##멕시코
##푸르
##HC
##톤케이
##렸을
##럴림픽
##듯이
##맥을
##밖에도
##힌다
##펀치
##녕군
##뉘엘
##놨다
20개
##ons
##으로도
12년
13일에
16대
##oph
21세기
##하였다가
28일에
한국이
대한민국은
##까지도
대표에게
##회의장
미국을
지역은
축구팀
조선이
감독인
1세에게
기록할
지원했다
국제교류
아이린
아이드
삼성전
독일에서
참여했고
중국에서
세계를
이용진
진행할
사이드
사이메이
프리메이
방송통신위원회
제국과
중앙정부
회장에게
라이관
##대학의
설립했다
김영철
100m
경기도교육청
기업이
##체육대회
공화국은
공화국연합
##하자는
17일부터
##로서는
들어와
아니고
2012년에
2012년부터
동안의
공개적으로
수상하였다
수상자로
28일부터
대회로
30일까지
으로부터
제2공화국
경찰의
6일까지
구성하고
구성하여
국내로
결정적인
##개발기구
클럽이다
결혼해
임명되었으며
지방세
전문의
역임했으며
아시아개발은행
수도로
마르셀
다음달
공산당은
주민들이
주민들에게
조직을
결승에
졸업했다
선출하였다
위치에
이재영
##사단이
##사단과
2005년에
제공해
광주시는
1890년
1899년
1897년
기관의
김영삼은
매출은
모습으로
선언을
제주삼다
경우는
1987년에
이유를
이미지
전주월드컵경기
기여하였다
요구를
유니클로
하였는데
동생이다
준비에
강화해
판매하는
대응할
알렉산다르
인민수호
분야를
정당으로
운동가
구축해
결성하여
공연이
진보당
5세가
1866년
경쟁을
정권이
그녀를
##도서관은
명예회장
만들어졌다
##전문가
회의에
김정은은
김정은의
1차전에서
안정적
안정적으로
수립을
아일랜드의
대안정치연대
트레이드로
전체를
나가시마
김동원
김동현
공모사업
대선에
합류했다
나치당
소재한
실패하고
명칭으로
떠나게
장남인
물리학상을
발언이
동양척
소통의
스틸리코
프레드릭
아프리카돼지
##서울대학교
연결하는
조약에
합동으로
##urg
강력하게
칼리파
사태를
군민들의
해결을
SNS를
득표율을
블랙핑크
김민석
부정선거
점검하고
챌린저스
출판기념
가지게
물러나
장악하였다
루마니아의
은행장
##타이거
법무부장관
그레타
##노동조합총연맹
##훈련을
##해주신
##ubl
뮤직비디오
시상식
지키는
응원했다
녹색당
차남으로
김형욱
제7회
받았지만
사도세자
위키백
코리아세븐
이태승
머물렀다
벌어졌다
사단법인
간호학과
한진칼
더블린
시범사업
서울중앙지검
브레이브
상당히
독자적으로
남원시
철저히
정일형
프랑코포니
정례브리핑
쿠데타를
이홍기
##인력공단
가맹점
Christian
한전KPS
가와사키
앤드루
성향의
새만금개발
크라이슬러
Prince
십자군
다짐했다
다이아몬드백
아니냐는
안현모
국민권익위원회
오리올스
명성황후
미카엘
병무청
중추원
공수처
이노우에
탐험가
박유천
송재호
추구하는
지속가능한
리우데자네이
태종무열왕
DMZ
KeSPA
어벤져스
루프트한
볼로냐
선별진료
리눅스
정약용
대통령비서실
굉장히
압록강
정옥숙
한국정보화진흥원
외교통일위원회
장쩌민
중국인민지원군
랭커스터
캐벌리어
경제협력개발기구
리모델링
모문룡
애스트로스
오리지널
헤카톤케이
훔볼트
프리메이라리가
인민수호부대
2승
2배
3명이
4명
5회
5명
Ag
Col
Jos
King
Mus
Per
Par
RS
Rom
Tim
kbc
가량
가세
가득
감스트
강사로
거느
걸프
결장
경혜
고곤
고급
고졸
고르바
공과
공학
공명
공방
공로를
공석이
과기정
교원
교향악
구제
구한
국왕의
권위
귀네
규탄
그들을
극우
기보
김관
김시
김하
김범
꿈꾸
나서는
나라의
남기고
내는
내달
노정
농기계
높이기
뉴저지
느꼈
늘어나
다중
다큐
다하고
다이스케
단위
단기
대만
대덕
덩샤오
독서
독려
돌연
동창
동산
동대문
되었던
되기도
드로나
드린다
딸이자
뛰었던
레흐
레슬링
로잔
로코모
롤스터
류호정
마리노
막부를
머큐
모후
모하메드
목적
목숨
못하게
못하였고
미주
미켈
민자
받았던
받으면서
발트
발데
발급
밝은
방콕
방글라
배임
배스킨
백성
밴쿠버
버트
벌이고
법과
베렝
부진을
부분을
비대
빌뉴스
빛고을
사운드
사전에
사카이
산불
삼았다
상영
상인
샤오
서병
서연
서남
선동
설리
설경
설치를
성직
성화
세미나
세브란스
셀트리
속에서도
손잡
수퍼
순위
쉽게
스미
스콜
시점
시장이
시의회
신차
신화
신민주연합
쌍둥이
쌓아
아파
아크
아폴
아픔
아인트
아바스
않기로
알리고
애장
애슐리
양보
양호
어업
어울
없도록
에든
에른스트
여건
여사가
역은
연쇄
오만
오경수
외식
외삼촌
요직을
용역
우라노
우에스
원가
웨인
음료
응오
의존
의석을
이두
이처럼
이겼다
이론을
인지
인프라
일했다
일련의
잃고
임대를
임기가
입지를
자한
자책
작용
잔루이지
재차
전승
전의
제25
조희
조코
조만
조머
주심을
죽었다
증권
증설
지부
지바
집안
차우
처분
천명
총애를
축사를
출자
출동
카투
카잔
칼라
컴캐스트
쿠팡
크로스
키워
키드
키이스트
타협
타키
타율을
택배
테워드
토요일
투항
트빌
특강
팀이다
패해
패널
패하여
패밀리
페냐
펭수
포장
포틀랜드
품목
피난
하토
한자
한영
해제
헌병
헤로도
호엔
호그와
화웨이
확실한
황선
회동
효고
히브리
##eth
##ola
##라흐트
##다리
##로니
##부스
##부아
##부사
##이와
##이었고
##이치로
##위생
##6IX
##과정에서
##지드
##교가
##EX
##가에서
##전성
##전사
##희의
##숙한
##ID
##LED
##금이
##리면서
##권에서
##타이어
##ler
##스포르
##동진
##아야
##아동
##아웃
##공수
##시인
##난이
##일과
##일까지
##조건
##주자
##주신
##건은
##사회의
##하놈
##문관
##진에
##보전
##보며
##임은
##포인트
##했음에도
##우아
##준은
##해져
##호대
##비사
##니니
##치면서
##세요
##무사
##데냐
##토벤
##대희
##대서양
##청으로
##나디
##식당
##게이트
##국과
##파드
##티잔
##즈에
##페오
##테스트
##테리어
##감으로
##철은
##등한
##요리
##올로
##플루
##명인
##술탄
##족을
##RC
##편이
##편에
##PC
##용역
##령과
##령에
##령으로
##행복
##재해
##현장
##외국어
##종은
##협회의
##케이스
##내어
##겠습니다
##총액
##글러
##덕을
##왕국
##농가
##츠와
##특수
##특보를
##바니
##갔으며
##매매
##렌드라
##HA
##zio
##겼으며
##렸지만
##커피
##룸에서
##ory
##에서부터
10명
1000만
18년
대한예수교장로회
한국서
29일에
1993
1990
##민주화
##5년부터
광주혁신
1988
미국이
프로농구
리그에서는
축구대표
후보인
후보였던
국민민주당
국민안전처
정부로부터
##라이브
감독에
기록으로
기록했는데
2월부터
활동하면서
활동하던
시작하였고
현대기아
사회민주
사회단체
우승하였다
교육자
열린다
세계에
사이트
사이토
사이버
아들과
##의회는
회장에
위원장이
민주당은
라이머
이적하며
이사배
설립되었고
공동위원장
전국의
스타트
브라우
총장과
##ane
통합해
모두발언을
교수이다
선정되는
사람으로
데뷔를
데뷔하여
데뷔하게
전쟁으로
기업인이다
롯데마트
##기관에
##기관의
000여
주장에
주장한다
아니라고
23일까지
출연하여
행정력을
##정보공사
9일부터
2010년에
결과에
레이커스
##문화를
학생들에게
정의당은
정책위원회
차지하며
차지하게
개발하고
통일을
이하응
브라질은
다이나
다이묘
전문대학
창당을
창당된
일부개정
바르톨로
국가대표팀에
전투에
전투가
울산방송
안전하게
즉위하여
챔피언스리그에서
어려서
생각했다
설명하고
2001년에
유나이티드의
확산에
내용으로
포천시의회
1887년
노력해
확보에
1997년에
##시설에
바이에른의
총리와
총리의
운동의
##베이터
광산구청
아내로
노동조합
피해가
기념해
진보정의당
복귀하여
요한네스
##여자상업고등학교
관리하고
##이라며
##도서관이
아르헨티나는
올라프
올라온
김재원
김재연
히로시
보여준
드러나
1858년
발매했다
채널을
프로듀서이다
##omas
의견이
내각을
교통사고
확인됐다
##상공회의소
##해양수산
김일성의
내셔널스
수준으로
##사이클
왕비인
KIA타이거
필리핀의
반영해
##동생인
대부분이
창설되었다
혁명가
재판에
등록을
연결기준
##리크샤
##urch
8세는
김승남
##시킨다
발탁되어
이루어졌다
이르러
사우디
선포하였다
후지오
최영호
표현을
공산주의자
우려가
후쿠다
김연철
인디언스
국제공항을
텍사스주
제4대
BNK금융지주
도르트문
매체는
도착한
윤치호
여론조
버스커
작성한
봉사활동을
부회장과
내세우
수익성
분쟁이
중앙정보부장
마쓰다
장흥고등학교
동성왕
주축으로
포기하고
알레산드로
세븐일레븐
여겨진다
로빈슨
한국해양대
인상적인
여러분의
갈라져
라틴어
로이드는
정일권
알라리크
정우택
스타일리스트
서정대학교
##문제연구소
이희호
타카하시
사르데냐
성균관대학교
참모총장
백두산
표준화
피에트로
##예슬이
한마음
AB6IX
황태자
반박했다
최민환
한국산업인력공단
서초구
일렉트로닉
박민서
생모인
국무총리가
누르술탄
문의하면
의병장
바그다드
오시리스
콜로라도
카디널스
임종식
맞대결
무령왕
그곳에서
아드하놈
천도교
프랜시스
미래통합당의
벨라루스
##로브스키
국민참여당
글러브
사헌부
콜라보
##이글스
국민혁명군
슈퍼맨이
어드밴스
크리에이터
##정상회담
##국토정보공사
스와로브스키
정운천
##빌로니아
보해양조
차민식
농식품부
버밍엄
bhc치킨
온실가스
조주빈
프로덕션
국민안심병원
다중이용
메릴랜드
소이현
경성방직
발돋움
버지니아
동양척식
아프리카돼지열병
고르바초
과기정통
덩샤오핑
배스킨라빈
셀트리온
아인트라흐트
에든버러
우에스기
테워드로스
1호선
2분
3경기
3위에
4만
4층
5억
5개의
7세의
A씨는
CG
CNN
Hen
IN
MD
Mas
RO
Ray
Sy
TF
TBS
가자
가타
가속
가사를
간첩
감금
감옥
강도
강을
강서구
거물
거브러
건네
걸었다
격리
계명
고수
고준
고종의
고통을
고토쿠
공통
과이
교보
구례
군단
군벌
군인으로
그냥
극단
극찬
근본
글이
금강
김좌
김원이
김이나
김무열
김예슬이
끌려
나인
나설
나츠
나이트
남연
내빈
너바
농심
다룬
다크
다각
다툼
당대
대각
대왕
대왕의
더하기
덕양구
덴무
도산
독도
동인
동강
디오
뛰었으며
라그
레스터
로랑
로널드
루스의
류사오
리조
리저
맞았다
며칠
명지
명의로
모인
몰래
몰려
못하자
무인
무슬
무대에서
문지윤
물품
미안
미추
민진
박현주
발대
방치
방한
버리고
베토벤
벤저
별도의
병행
보라
부대의
북대서양
붕어
비전
비중
사쿠
사바
사상을
사명을
사마의
생생
서류
서북
서귀
선을
선구
섭정을
성적으로
성장이
성범죄
소피
소환
소장은
소장이
수염
수혜
수험
수장으로
숙부
순조
쉐보레
슈뢰
시진
시크
신장
신진
실점
쓰는
아다
아츠
아흐
안나
앉아
알제
앞선
야기
양현
양향
양준혁
어쩔
얻지
에레
에다노
엔리코
여부
여부를
역이다
연달아
예를
예식
예문관
오연
오하이
올리고
와해
와일드
왕실
외질
원장은
위즈의
유현
유연
윤후
율리아
음성
이공
이코
이마
이누
이길
이전을
일론
일정으로
자제
자야
자비
자바
자영업
잠실
장도
장갑
장용준
재해
저비용
저출산
전형
전호
전원이
전세계
정홍
정변
제임
조은
조인
조문
조슈
조달
좋겠다
주심
주장은
중산
쥬얼
증국
직을
진실
진술
진용진
창건
철학을
청송
체흐
초등
총력
최일
추적
취항
취급
취지로
침투
카밀
컬럼비아
케리
코넬
쿠사
퀘벡
타격을
탐정
태생의
토리
토크
투개월
트루
특채
특성화
파병
파스쿠
파탈리
패했다
팬들을
푸스
학장
함태호
합의를
항쟁
행보를
허남
헤디
헤게르
환원
황영
황희
회계
회담을
희강
##라리
##수준
##수습
##린은
##이었는데
##력에
##기면서
##영주
##교실
##원경
##원들이
##M의
##SS
##SU
##가을
##가리오
##IT
##터로
##금과
##리드
##장애
##타오
##sp
##cy
##ara
##ack
##동은
##아산
##공의
##시피
##일고등학교
##인들
##노리
##노의
##순환
##트너
##트레
##트롤
##트리에
##메네
##메야마
##엔티
##팀에
##사레
##사진을
##르미
##신은
##신고
##신으로
##신세계
##하를
##하모
##마가
##보암
##소장
##소녀
##포먼
##면의
##해운
##호로
##비와
##비식스
##치다
##치제
##세포
##세르크
##세데스
##세미나
##무장
##무형문화
##간에
##토시
##청원
##학당
##선도
##더릭
##당원
##병원은
##차가
##규의
##디를
##누스의
##천만
##카페
##카르트
##화기구
##파르
##페이스
##락을
##합병
##철학
##등에
##드로스
##플리
##운을
##퍼트
##술사
##콘서트
##RO
##베레
##물류
##레르
##레스를
##방은
##미안
##연방
##겨진
##겨울
##점은
##각이
##키야
##내외
##ić
##총회를
##채용
##있었다
##헌왕후
##란젤
##특보
##바이트
##바운드
##ure
##갔으나
##캠퍼
##투표를
##님을
##맞춤형
##같이
##슨의
##혜영
##커버
##접한
##밸리
##ene
19년
19대
##에서만
10만
16개
22개
한국에너지
한국공항공사
한국국토정보공사
광주를
광주에서
광주광산
1989
1980
서울민사
서울메트로
일본으로
민주사회당
조선인
조선노동당
의원으로
국민들이
국민은행
##라고도
##위원회와
##위원회에
국가에
10월부터
##레이터
기록되어
지원과
시작하는
아이폰
부산항
우승했다
##사업본부
배우다
운영하며
정치를
진행을
진행될
사이로
대학을
개최하는
##방송을
##방송국
관련이
##대학은
선거가
전남의
인천시설
70여
1일까지
##학자인
##학자이다
##연합당
데뷔하였고
데뷔하였으며
이승훈
25일까지
##기관을
하나는
하나금융
5일부터
김종규
방문을
21일까지
이에야
주장으로
들어온
전북지방경찰청
##지방선거
계획이라고
경기에서도
레이디
네덜란드는
##시장진흥공단
15일부터
15일까지
포함되었다
대구보건
대전의
대전방송
예정인
12일부터
KB증권
국내에서
##리오네
화순읍
시절의
이하늘
##도시철도
마이뉴
산업부
산업의
도시로
마르베이
특별히
물리치고
목포대
주민의
2004년에는
인사말을
##재단은
이끌었던
이끌었고
이끌었으며
2002년에
2000년대
필리포
안전관리
크리스마스
영향이
기대치를
계속된
포천시장
1884년
이유가
보도가
입단한
북한이
북한군
비판하였다
인정받았다
대응에
나이가
출범하였다
기간동안
승리하였다
1996년에
광산구는
아내의
도쿄올림픽
시행한다
CJ프레시
##라운드에서
출시한다고
복귀하였고
호남의
1869년
1868년
##슬라브
인수하여
올라가
부인했다
기자간담
보내는
삼성전자는
300만
군사적
본격화
에이엠
에이비식스
제외하면
전남도지사
설치된
홍보대
Church
TV조선
김정은이
1856년
수석부
창단되었다
로스쿨
수행하고
확정되었다
패배한
부문은
부문의
탈당하였다
확인했다
합류하였다
선임행정
양키스의
실패한
연주를
##고등검찰청
SK텔레콤은
왕비가
합병하여
차례에
창업주
정상에
아이유는
후원하는
대표팀의
정종원
창설된
아래에서
마사히로
클라우드
김수미
싱어송라이터이자
김승수
마음에
신문왕
자회사로
발탁되었다
한전공대
아직도
전기차
선택을
부임한
부임했다
소상공인시장진흥공단
공유하는
김홍용
이은권
이것을
예수게이
루스벨트
에르빈
##보증재단
펼쳐진
후보자에
않았지만
이웃을
자연스럽게
한성숙
강기갑
한국인터넷
다니엘레
히어로즈의
손병석
박병호
##자산운용
부탁드린다
이중근
Ang
치매안심
김소희
반응이
MVP를
마쓰이
활발히
16강에
슬로베니아
전당대회에서
형태의
이춘재
아리랑
메탈리카
동남아시아
조영래
정확히
신뢰를
이고리
치른다
승부차기에서
브랜뉴
신재평
쿠데타
IBM
김인식
주세페
원더걸
##경비대
아이디어를
김도균
유기상
한혜연
일찍이
##eral
득표율로
오디션을
시우바
라스베이
오카다
시흥시
원로원
충분히
Corpor
다우니
알아사드
메르세데스
##신용보증재단
메달을
팔로알
제11대
소외계층
이완신
음주운전
Comm
태극기
커머스포털
GS리테일
프라우엔
관악구
##중소벤처기업
최순실
팔라디오
화제다
건강보험심사
이니스프리
아이언맨
이채익
자코뱅
픽처스
글래스고
낭만주의
인피니트
피츠버그
충혜왕
리메이크
클레멘스
부영그룹
푸르지오
국제표준화기구
삼성SDS
맥아더
아브라모비치
삼성물산
국립과학수사
금호아시아나그룹
WWE
아케메네스
황민현
Papa
나윤수
미얀마
박애리
리우데자네이루
다큐멘
미켈란젤
베렝가리오
서연미
트빌리시
효고현
한국서부발전
다이나믹
더하기미디어
리저브
무슬림
벤저민
서귀포
양향자
오하이오
전호환
파스쿠찌
##하모닉
인천시설공단
CJ프레시웨이
1골
1위에
1순위로
2위에
2위로
3인
4로
4위로
5번
8번째
9회
AM
Ab
Af
BC
DNA
Er
GD
HA
High
Is
Just
Kh
Lou
MB
NA
OST
One
Vinci
War
Wil
Way
km
to
▲김
△김
가고
가드
가졌으며
각자
간신
갈리
강병
강태
강행
강제로
거대
거리가
걸어
검증
결실을
경선을
계룡
계몽
고로
고도
고담
곳에
공관
공단
공업
과연
관전
관측
관현악
구역
구세
구하기
국적의
군에
궁정
귀여
극심한
금년
급여
기조
기각
김중
깨달
나은
낙랑
난카이
남작
노하
노예
논문을
농가를
높여
뇌물
뉴멕시코
느낄
니조
다름
담고
담겼다
대로
대답
던진
도발
도왔다
도카이
도라에
돌격
동명의
되던
뒤인
뒤이어
듯한
등재
등에게
딸이
뛰게
랜디
러닝
로어
로베르트
루자인
마주
마두
마재
마츠
막아내
만장
말하고
머리로
멋진
면허
모차
모기업
무패
무대로
무라트
미들
미성
미코
민방
믿고
박동
박현
박사가
발리
방정
벨파
변동
보위
보훈
복음
본회의를
볼리
볼턴
부군
부흥
부대를
부시장
북양
불릴
불명
브리지
블라
뿌리
사내
사살
사회의
산티아
상의
상품을
새뮤
서수
서서
서고
석패
선종
설명을
성수
세한
손기정
송민
수의
수업
수강
수급
수시로
수산물
수차례
순회
슈테
스베
승하
승객
시그
시국
시바
시교육청
식스토
신양
신보
신호
신축
실증
실바
썬더스
아크로
아리스토
안상
안방
안양시
안지영
안기부
알릴
알마
알키
알프레드
앞당
앤디
약혼
얻을
얻었고
여왕의
여당이
연인
영조
예배
오직
외곽
용병
우파
원인은
위도
유년
유가족
유스케
육영수
의성
의성군
의회는
이치
이씨의
이화학
이베스트
이케르
인선
인센
인현왕후
인테리어
일회
일치
일괄
일원이
임태
있습니다
자아
자식
자카
자사고
작위를
잘츠
재고
적시
전한
전력을
접어들
정당을
정신을
제자
제인
제니
제31
제천시
조로
조리
주미
줄곧
중에서는
지위
지어
지중
지켰
진덕여왕
질주
질문
쫓겨
차베스
참고
창기
채드
천사
철회
체크
초선
총회
최은
최장
최신
최미
추격
축제를
칸이
켈리
코디
콘서
쿠쿠
크고
크레이
테네시
퇴사
투약
튀니지
특례
틈을
팀과
파생
페페
푸른
푸에르
프렌
플루
피자
피델
하에서
한겨
한계를
해를
헌액
혈액
협정
호아
호메
홍씨
황자
회사로
휘말
히사
히딩
##틀룰
##부진
##부담
##산군
##지뉴
##직으로
##교향악
##가게
##터널
##리사
##권역
##ly
##ale
##동지
##시지방선거
##인수
##인물
##인들과
##노를
##노미
##노미야
##안정
##안츠
##ng
##상대
##상록
##사용
##사태
##르지
##하러
##하수도
##였기
##문으로
##마루
##어서
##진아
##보육
##임에도
##포드
##준과
##해설
##경은
##악한
##토는
##토네
##토리코
##청장을
##나로
##나인
##되는데
##실은
##디언
##FF
##게는
##게더
##파일
##티시
##중의
##통제
##랑이
##유가
##유공
##te
##감한
##받았으며
##드르
##요스
##쿠르
##RT
##베타
##구리
##구장
##생으로
##물질
##습을
##브랜드
##재건
##러의
##러스트
##예정
##ile
##증진
##증으로
##ber
##응급
##GB
##평균
##덕왕의
##채연
##농산물
##있게
##VER
##uri
##빈치
##투수
##셰비키
##매출
##텐베르크
##wo
##났던
##좌에
##ft
##히코
##염을
##혜진
##짐에
##캐롤
##킴이
##늦게
##itt
##ens
19세
19일에
10억
##los
15세의
14대
17세
##학교에
한국판
##0년까지
##ama
##00만원
대한민국과
광주의
선수였다
선수들에게
##리그의
##대학교와
리그와
조선신
조선인민공화국
의원에
의원인
40분
##주의적
1970
국가가
국가정보
##라이너
소속돼
시즌까지
시즌에서는
기록에
##교육대학교
4월부터
5월부터
지원한다고
시작됐다
국제적인
아이들
현대산업개발
사회에
이어져
이어갈
##사업과
자신들이
운영했다
운영되고
참석할
관계로
관계는
이용할
이용하는
진행하였다
프리츠
국회의장을
대학에
개최할
전라남도의회
전라남도지사는
##ico
##인민회의
민주당을
이적해
이적하게
설립되었으며
국회의원이
선거구에
독립운동
독립국가
공동선대
##기술을
전국민주
스타즈
스타니스와프
최고인민회의
그러면서
교수와
데뷔골을
기업인으로
실시하는
사용을
26일부터
공화국을
2011년부터
21일부터
김대중컨벤션
27일부터
2016년에
된다는
행정자치
2017년에
전북대학교
전북은행
##ise
K리그에
결과가
##경기장
##대회가
7일까지
##국민신탁
예정된
6일부터
구성해
결정한
##개발원
왕국과
##과학원
노무현은
통일교
2018년부터
프로그램에
프로그램이다
이승만을
산업을
2006년부터
##시키면서
공산당이
인사들과
##인이라는
바른정
안전과
즉위했다
연맹에
전달하고
전달하는
가능할
국방군
보건복지위원회
청년들이
마련을
1885년
1881년
영광군은
제주항공
노력할
노력하고
찾아와
북한에
판매하고
대응하기
경영대학원
증가했다
증가하고
출범했다
확대해
확대하고
세르반
샤를로
이전부터
CJ푸드
결성하고
출시된
발전과
요청에
자리에는
가족과
국왕인
검찰총장
하이젠베르크
300여명이
작품이다
가문은
##하려던
외교부장관
음반은
보여주는
노르망
투자유치
1855년
발매되었다
아메바
요시다
트레이닝
내각총리
제기됐다
내년도
##나가겠다
4년간
정규시즌
대선에서
오르시
남자이다
박주영
텔레그램
이기택
500m
해체되었다
##노스케
1834년
스티비
세이브
논의하는
주인공으로
기부금
직후인
노태우는
신동현
알리안츠
부진으로
멕시코의
아래에
##아시아문화
강점기에
시리아의
군인권
박사모
대동청년단
##기념사업회
박영효
정신적
NHN
김홍걸
페르난데스
타이틀곡
공천을
불리한
보컬리스트
밝히고
##농업기술
동참해
선고한
All
않았으나
김지완
플랫폼을
조현아
거주하는
지시하였다
사례를
플라톤
비서실장
이순자
8강전
봉사활동
##메니스탄
정착을
히데키
제6대
김희민
내세워
박찬대
##플레이오프
슬로건
기울이고
파트너십을
연대자유
바이올리니
해설가
2번째로
메디치
슈퍼리그의
에레디비시의
용인시
이곳에
이곳에서
중장기
##비행단
오세훈
한인애국
한국해양대학교
진지왕
##테크노
CSKA
브래그
유신정우회
키움증권
기소된
승강기
장면이
파르티잔
어렵다
임영신
승부차기
게오르기
시게루
직무대행
오리온자리
주세죽
이홍장
평생교육
일산동구
##무역투자
가공의
무라카미
전설적인
한국산업기술
성폭력
충분한
원작으로
미사일
입헌민주당
순창군
카메룬
프라이부르크
호비뉴는
##EEN
구본무
투르크메니스탄
저작권
브뤼셀
최시형
마우리치오
권태홍
김두봉
양정철
에두아
중흥건설
정부세종청사에서
드라이버
송유빈
충정왕
한국과학기술연구원
스카이워커
매사추세츠주
모로코
문화유산국민신탁
안타까운
미스틱스토
에피소드
알하틀룰
조경태
파드리스
SK브로드밴드
전국동시지방선거
Richard
벌교읍
법흥왕
전정국
홍범도
랄라블
원활한
최인호
아르카디우스
노브고로드
박연차
신격호
양해각
럭키금
무가베
위민스
차은우
예산결산특별위원회
오신환
우스타샤
한니발
목숨을
발데마르
방글라데
하토야마
사회민주노동당
시진핑
한국에너지공단
서울민사지방법원
Corporation
도라에몽
모차르트
벨파스트
산티아고
새뮤얼
이베스트투자증권
잘츠부르크
창기라이
푸에르토리코
한겨레
CJ푸드빌
1의
1등
2인
2곳
3억
4위를
AE
Colle
Gra
Hol
ID
Jr
JK
Jean
LED
Min
Phil
Pet
Res
Sim
SAO
Ter
Vi
가전
가질
가네
각기
각오를
간접
간사이
강소
강연을
개조
개화
거둬
거슬러
겪었다
계파
고메
고신
고후
공국
광동
괴벨
교도
교회에
구절
구하라
국공
군부대
권정
권용
권영진
균형
급락
기저
기점으로
김예
김세의
꼽았다
꼽히는
꾸며
나도
나눈
날아
네팔
년간
노란
노르트
농수산
능력이
다쓰
다빈치
대입
대사관
더빙
데포르
도심
도박
도밍
동년
든든
들을
딴지
때에도
떠났고
뛰어들
라훌
람베르토
럭비
레바
로시
로타르
리설
리가의
마일
마틸
마우스
만드
맞물
매력을
매장에서
맺게
먹는
명은
명인
명이다
몰아내고
몸에
무용
문석
문체
미첼
민스크
밀양
바야
바디
바베이
박대출
방상훈
버진
베스파
병원으로
복수
본관
본회의
본사는
부에
부가
부유
부뇨
부대표
부대는
불사
불렀
비엔
비극
빈지노
산다
삼각
샌드
생전에
서예
선원
성시
성경
성악
셰필드
손경
손언
손님
손자인
솔루션
송은
쇼케이스
수업을
숙종의
숭배
스터
시초
시기를
시칠리아
신창
씨름
아쿠
악의
악플
안규
안티오
않았으며
애들
양의
양육
양기탁
얻는
에뛰
엔진
엠넷
여단
연제
연수를
영감을
예전
예레
오이
오병
오송
오키
옹진
와카
왕궁
외사촌
요동
요아
요즘
우기
우범
운전자
월터
웨슬리
웰링턴
위즈
위안부
윙어로
유교
유두
유행
유잉
윤희
은성수
의식
이이
이을
이베
이택
이목
이밖에도
인성
인문
인삼
인텔
일행
일하는
임직
입성
입양
입각
입장에서
자의
자손
자리는
장이
장쑤
장군은
장르의
재야
재산을
적었다
적합한
전세
접속
접목
정형
정석
정예
정글
정원식
조인철
종전
종종
좌완
좌측
죄송
주자
주지
주루
죽음을
준장이
준플레이오프
줄이기
중재
중기의
줬다
지은
지토
직장
진화
진안군
진정한
집사
찰리
참배
천문학
초당
초록
촛불
총학생
최치
최광
최선의
측면
치세
침해
카즈
카테
칼뱅
캐롤
코스트
크루스
클루
키타
키커
키나드
타파
타블
타르타
탁월한
태안
태광
트라이
파라마
패럴림픽
팬들은
퍼포먼
펜타
펜싱
편에
포용
포브스
폭넓
퓨처
프론
프레이
플뢰
필수
하리
하우
하남
한승
합법
해지
해왔다
해럴드
허가를
호심
환송
황인
후원을
휩쓸
히가시
##ho
##라며
##라호
##다이스
##이한
##이므로
##위해
##창조
##자였다
##에다
##에듀
##지주의
##100
##1000
##85
##교로
##교리
##교동
##MW
##MH
##류의
##전용
##금액
##타워
##타카
##ael
##루가
##양식
##의학
##의원을
##동과
##아네
##아우아
##공기업
##시카
##시했다
##시대의
##일기
##인터
##안과
##석에
##go
##주차
##주현
##엔지니어링
##사다
##사상
##하신
##문과
##마즈
##어머니
##진상규명
##보통
##보좌
##임금
##했음을
##해튼
##경궁
##경제를
##비크
##비정규직
##니버
##고기
##말리아
##효진
##세나
##무가
##대안
##학술
##선발
##선군
##선한
##나미
##나갔다
##버넌
##버지를
##당금
##당해
##름이
##디의
##디슨
##업계
##었기에
##게도
##화력
##화되었다
##파니
##티보
##즈카
##페라
##여수스
##크스부르크
##민장학재단
##유지
##유진
##ti
##집단
##작물
##작으로
##철을
##한드로
##받지
##처분
##오가
##오던
##오염
##후에
##후가
##요한
##표로
##번으로
##망스
##편성
##레기
##레른
##방에
##미코
##미레
##령은
##함으로
##재정
##재현
##놀이
##배구
##황제
##예비치
##mar
##키와
##강도
##강에
##겠느냐
##클레스
##남은
##남의
##택시
##모집
##특설
##특구
##특산물
##목으로
##투를
##투어
##블을
##fli
##환에
##겼던
##뉴얼
##범한
##닛폰
##밍턴
##알라
##뷔르템베르크
##맥주
##컬쳐
##캐스터
##겸의
##즐리
##큐어
##캡스
##촐레른
##oup
##abri
##ergy
14년
17대
대한국민당
25체육
##하였다는
27일에
한국명
한국연구
한국문화
한국도로
한국국민당
대한민국이
##위원에
광주형
서울은
서울에
대통령후보
지역과
지역인재
조선국
자유를
자유당의
국민과
국민건강
소속팀인
기록되었다
되었다가
7월부터
활동이
활동했으며
지원한
지원으로
사회를
부산국제
6월까지
이어받아
제1군
##사업소
사업과
참여하지
중국과
중국에
참석했으며
이용호
##센터와
제국에
문화관광
시장과
##스타트
##대학과
SK에너지
문재인대통령후보
김영주
국회의원으로
전남지역
전남체육회
그룹이
코로나19가
영화는
경기도와
아르테
아르연
##기업의
스타스
##지원단
사람에게
멤버이다
이상민
시민들에게
시민사회
하나금융그룹
##안전본부
5일까지
김종회
사용하였다
0000
우리카드
11일부터
2011년에
17일까지
이에야스
들어올
출연했던
상황이다
레이놀
2009년에는
##경기장에서
유럽에서
22일까지
##대회에
##이었다고
14일까지
학생이
예정이었으나
2014년에
2014년까지
구성됐다
##과학연구소
8일까지
제작진
제작하고
이승만이
여자친구
2006년에
도시의
왕조를
평가하였다
역임했고
국민의당이
수도인
메이쇼
발생할
공산당의
황제는
인사혁신
전투는
박정희가
울산시
조직된
##단체협의회
안전하고
올림픽에
지지하고
선출되어
2005년에는
연맹의
크리스틴
연합뉴
설명회를
국방과학연구소
국토부
대신에
데이아네
마련하고
선언하였고
이유에
##환경공단
입단하면서
만나게
김현동
김현우
사진이다
성장했다
인정하고
인정하지
가톨릭교회의
승리했다
기독교방송
국무장관
##비치는
도쿄에서
시행한다고
소설가이다
##자원봉사
크로스를
변호사가
노동운동가
국토교통위원회
토론을
복귀를
아우크스부르크
모스크바에서
고객들에게
기존에
전남도립대학교
음반인
총재가
트로이
나섰고
창단된
트레이더스
1985년에
1603년
라이온즈에
내각이
제기되었다
공모를
의료진
희망을
희망하는
밴드의
합류한
선임됐다
박주민
실패하였다
통일민주당의
최우선으로
##스토랑
1598년
달성한
신익희가
동료인
김종필의
소개로
차례의
물리학상
공군참모총장
반영될
호텔에서
라디오헤
라디오스타
초기에는
나서고
스틸러
일반적으로
강진군민장학재단
##보건소
##보건기구
매출액이
고등학교를
물론이고
여름에
박성광
합동참모
엔씨소프트는
스튜디오에서
김승규
김승환
마음이
히틀러는
배출하였다
사고로
SSG
남구청장
최우수상을
Inc
이르기까지
귀족으로
부족한
제조업체
청주방송
##너스컵
스테아우아
16세는
출판사
##irl
아사쿠라
제5회
차이가
4차산업
물러난
##자로서의
완료했다
감소한
불리게
리더십
맞이하여
파트미레
밝히면서
하겠다고
##하마드
##보증공사
사법연수원
황후가
이외의
##상황을
탄생한
고등교육
##참모총
실현을
조용식
주변에
떨어져
준결승전에서
활발하게
지상파
16강전에서
삼국유
진도개
마르세유는
나카노
##사랑상품
기울여
신정훈
엑스포
비교적
산림청
알레한드로
끝내기
지나지
막내로
개봉한
배경으로
김철우
아인슈타
파크에서
유벤투스는
CIS
게오르크
시게오
무신론
박은정
오늘날의
장덕도서관
한양대
긍정적
긍정적인
일리노이주
##AAF
가슴에
권유로
근처에
무시하고
쿠르투아
휩싸였다
광해군의
에마뉘엘
한국환경산업
공백을
다마스쿠
경무대
방지하기
Sport
니시닛폰
오래된
부른다
서동주
금성사
다나카
사무총장이
다가오는
정호용
폭로했다
후지와라노
나르샤
데모크리
근황이
할리우드
##ology
대한독립군
구스타프
Peter
급격히
시가총액
윤상직
전교조
스폰서
의자왕
호르헤
##마케팅
리카르도
한채아
명백한
최병길
충숙왕
몬테네그로
강혜정
영유아
##협상대상
주한미군
김국헌
버펄로스
사보이아
임동혁
장준하
항소심
드래건스
송일국
콘스탄티누스
애로사항을
국무조정실
재난안전관리
노스웨스트
닌텐도
맥도날
올리브영
간도특설
한용운
호치민
##종합운동장
도미노피자
바덴뷔르템베르크
성희롱
유노윤호
스타벅스
아기날도
귀성객
마마무
윤승아
일컫는
홍승활
호엔촐레른
배스킨라빈스
헤게르베르그
##세르크세스
마르베이크
브랜뉴뮤직
팔로알토
건강보험심사평가원
간신히
독립국가연합
전국민주노동조합총연맹
군인권센터
럭키금성
College
만드는데
바베이도
베스파시아
부뇨드
손언진
유두석
타르타로스
폭넓은
한국연구재단
한국도로공사
2사
2시간
3관
3할
40년
4위에
4호선
5위
5명이
6번째
6개의
700
8회
9000
Ac
Art
Ben
Bill
Bern
Cr
CA
Day
EM
ED
Fi
Gi
Gre
Gabri
Hy
Il
JI
Mr
MY
MAM
NE
NGO
PK
Sar
WM
with
☎0
가난
가우
가평
가끔
가가와
가졌고
간다
갑질
강신
강정
강하늘
같아
개량
거쳤다
거점으로
건조
건물을
건전한
걸려
검거
경남도
경명왕
계산
계층
고가
고안
골대를
곳을
공이
공자
공사를
공사가
공군의
과제
광장
광고를
괴뢰
국적
국어
국군의
국적을
군복
군대의
군의원
권영
권나라
그쳤고
글쓰
급제
기지
기리
기해
기자는
김다
김응
나중
나쁜
날렸다
남동
내어
넘게
네빌
노키아
누가
느낌
다리
다목적
단치히
담겨
답했다
당에
당헌
당분간
대치
대세
대내외
던킨
데다
데쓰
동경
동의를
뒤늦게
드리
드디어
디비
디케이
딸은
때려
뛰던
라마다
러시
로버
로베레
리셴
리콴
림스키
마카
마돈
막대한
만일
만날
말린
말리크샤
맞춘
맡기도
매력
맨해튼
맺으며
먹거리
멘토
명륜
모양
모태
모른
목에
못했던
묘소
무죄
문인
문익
물량
미즈
미하이
민관
밀어
박창
박석
박소
박삼
반려
반등
발기
발목
배부
배상
백악
백운
백제의
벤제
벨트
별다른
보며
보게
보두
보복
보태
봉해
부경
부왕
부딪
부문을
불의
불편을
비리
비준
비엣
빛나는
사토
사흘
삭제
살기
살리
살리기
삼민
상기
상록
상도동
서면
서브
서방
서유리
선양
설기
섬의
성추
세리
세상
세습
셜록
소중
속한다
손금주
송성
송대
수구
수령
수백
수상을
숙원
순교
순차적으로
쉴레이
스칸
시성
시무
시현
시급
시모
신부
신자
신명
신봉
심사를
심경을
싸워
싸움을
아자
아를
아워
아티
아프
아낙
아닐
아드리
안데르
안유진
암스트
압승을
애초
양력
양국
양질의
어릴
어두
없으며
에바
엠블
연정
예보
옐리자
오와
오기
오제
오번
오언
옥천
온건
올렸고
옮긴
왕정
왕자의
외형
우니
우젠
운수
운전
워런
원전
원인을
웹사이트
유병
유길
유채
육영
은신
의도
의회의
의친왕
이도
이근
이스타
이바라
인교
인계
인플루
일간
일각
일러스트
읽고
임다
임기를
입소
자는
자부
자행
장식
장종
재지
재회
재상
저널
적립
적혀
전영
전일
전기의
정교
정정
정하고
정윤모
제트
제르
제고를
조진
조사에서
조언을
주된
주가는
중일
중진
중점
지연
지불
진군
진상
채병
청정
청춘
체류
촐라
총수
총통
최원
최유
추증
충성
치르
치고
치타스
친한
침입
칸국의
칼로
컨셉
크메르
클로드
키가
킹스
타점
타구를
태창
태백
테란
토미
톡톡
통틀
통근
투명
트레일
특임
특유의
특강을
파면
파우
팬이
페어
펼칠
포스
표도로
풀려
플렉
하동
하디
한대
한중
한민
합참
해쉬
핵무
했었다
헬리
현판
현종
현빈
형식
형제의
혜경궁
호시
호평을
홍영
홍정
화합
황성
황정
회동을
효정
후사
훌라
휴가
힘들어
##hel
##rea
##라르
##라니
##라크
##다니
##수련
##수막
##부지
##위한
##와도
##와키
##창기
##자책
##자살
##자위대
##5000
##성적
##도심
##도너
##도바
##지아
##지질
##제주
##교직원
##희를
##형욱
##리타
##장관이
##타리
##cial
##OL
##ON
##야와
##양면
##스텐
##동아리
##공급
##시미
##안으로
##메인
##상호
##팀장
##사회를
##사협회
##사코프
##르노
##하길
##립니다
##마는
##어요
##포폴
##우먼
##우스를
##경이
##호에
##정변
##년의
##고리
##말로
##무르
##토프
##대중
##학기
##더레이션
##버라
##버가
##당했고
##당하자
##되거나
##실내
##실험
##차게
##차오
##차전에서
##든지
##화물
##화되고
##국적
##파에
##티넘
##민속
##ve
##ts
##작품
##감리
##한지
##받는다
##심판
##허가
##씨름
##오리
##오의
##복인
##결정
##결집
##체와
##플로
##플랫폼
##TRA
##계좌
##너드
##망에
##구호
##구나
##생과
##물리학
##P는
##레앙
##방향
##미치
##행정부
##행동당
##격에
##현을
##러는
##배상
##종사
##반대
##익을
##협약을
##키치
##패에
##남을
##왕조
##DI
##BE
##급식
##취를
##모와
##확인
##봉을
##봉주
##왔지만
##손해
##홀구
##윤기
##측은
##슨과
##훈의
##혜숙
##HF
##벨라
##범준
##범근
##춘기
##셴코
##ZY
##폴레
##ore
##orn
##ely
13대
18세기
대한의사
212
##학교에서
25년
한국지역
한국무역
##위원과
경기인
광주체육
광주FC
대표자
대표하여
##lav
##lad
선수촌
##리그에
##리그에서
서울과의
프로포폴
민주연합
리그이다
##ear
후보자를
##주의의
국가사회주의
##라이어
##리스는
11월에는
2세에
9월부터
활동과
활동으로
지원하겠다
더불어민주당은
에서도
시작을
시작되는
국제적
아이템
아이들이
부산시장
부산여자
이어지고
이어갔다
삼성화재
자신도
교육에
독일은
독일군
프랑스군은
참여하였고
중국을
운영할
세계보건기구
정치적으로
이용객
진행되고
##됐다는
프리울리
프리큐어
대학이
같은해
##방송협회
전라남도가
대학교로
대학교를
중앙아시아
자유한국당이
이름이다
위원을
천황으로
천황에게
이적이
이적했으며
이사장과
설립에
추진위원회
##억원이
##억원에
660년
공동주
인천교통공사
이탈리아는
이탈리아에서
영화로
발표에
발표를
발표되었다
##기업을
##기업으로
전국에서
전국시도
스타디오
10일부터
##학자이며
사람들
멤버가
멤버이자
멤버였던
##체육관
실시하여
관계자와
사용한다
000명이
4일부터
4일까지
2011년까지
교황이
공격적인
있었다는
사건과
이에미쓰
들어왔다
로마로
28일까지
출연을
행정관
2010년에는
##ism
레이철
레이커
아버지와
30일부터
유럽축구연맹
참가한다
참가하게
포함됐다
포함되지
대전에서
학생을
학생들과
진출하는
결정이
결정되었다
##리오스
클럽이
제작사
제작된
##cher
김성원
김성근
개발해
##지역을
창당했다
엔터테인먼트에서
일부가
평가받고
자이언츠와
역임하였으며
국민의당을
조성민은
국립아시아문화
특별법
2004년부터
인사와
사랑과
이동통신
2000년부터
안전사고
학교에서
즉위하면서
광주시민
생각하는
##병원에서
##학과는
설명하는
기대하고
1990년에
보고를
데이비스
우수상
우수상을
우수성을
1886년
1883년
영광을
영입을
영입하여
영입되었다
영입하면서
블루팡
기여를
기여하고
기여했고
노력이
김현식
1997년부터
동생이
성장한
성장세를
증가할
인민해방
사무엘
승리하여
기독교의
1989년에
보수당은
1999년에는
브랜드로
브랜드인
기념촬
국토교통부와
SMAP
금융위
모델을
모델인
반대하고
1867년
경쟁에서
바르셀로나에서
인수한
뮌헨을
연기했다
은퇴하였다
레드삭
작품인
개선이
후반기
후반에
홍보를
단체가
나타나고
중요성을
영상으로
문화체육관광부장관
투자자
발매한
수석코치
공격수이다
아닌가
이스마일
제기했다
##라스부르
##예술대학교
신청서를
Stev
김태호
1848년
1846년
선보이는
회원국
1701년
노동당의
바오다이
교통안전
순천대
합의에
고양시청
양키스와
제안한
나오지
유진투자증권
가입자
주도하는
##받았다고
달성하였다
떠나면서
지정된
만주군
유격수로
전반적인
1839년
세르비아의
주인공은
그리너스
기부했다고
방역을
집중하고
포항시
남부발전
##조사위원회
상하이에서
실적은
대표팀은
조선인민당
프레디
달러에
##게임즈
메시지
클라크
세웠으며
출생으로
민간인
SSD
군인이자
자유민주연합은
김기선
귀국했다
헌법재판
점검했다
##통일당
지역구인
김홍일
ASM
뉴질랜드의
최진실은
오사카부
우선협상대상
입학하여
1군으로
상승세를
싱가포르의
나온다
농협중앙회
이뤄진
박헌영의
왕족이다
이집트의
매체에
현대차그룹
극복하기
수요가
인구정책
촬영을
근로자
국민의힘
목소리
이회영
조카인
김형오
HDC그룹
8강전에서
Road
드림웍스
##그레브
국가안보실장
분위기가
건륭제의
제6사단
가리키는
##기록원
실질적으로
기상청은
준결승전
1루수로
영산강
평론가이다
미야와키
프로게이머이다
PSG
이익을
카디프
사우디아라비아의
성립되었다
방침을
세워진
##디스플레이
Thomas
메인보컬
크리슈나는
제일기획
구미시
##이닝을
크리스토프
이방자
장면을
제101
북쪽으로
TSMC
만남을
Energy
플래시
플래티넘
Techn
이봉창
재능을
미래에셋대우
Comp
무라야마
신사임
연휴기간
올려놓
전략기획팀
원칙에
베르나베
소시에다
시우민
위성정당
메가박스
빈두사라는
영락제
주문했다
오르반은
일시적으로
흥선대원군의
가나가와
답변했다
의결했다
허브로
국무총리를
오프라인
하후연
스파르타크
##코르사코프
민정수석
요르단
구자철
휘그당
다음날인
남기찬
백승주
남해안
단순히
조계종
정책위의장
오를레앙
중견수
지니고
부산경남방송
비공개
비공식
아쉬움을
제갈량
RCD
Soul
스타쉽엔터테인먼트
도미니카
마코토
자택에서
지롱드
지롱댕
##프라이즈
국악인
김옥균
마티아스
무실점으로
GC녹
에우제
##대변인은
한국독립당
박시종
##친화도시
달콤커피
맹활약을
비토리오
장정숙
금융감독원
Charles
UAE
체감할
모니터
경제산업특보를
기생충
오마이걸
끊임없이
시미켄
장항준
휴대전화
네이션스컵
하드리아누스
GGG
닛폰햄
다채로운
페라라
풍부한
프레데리크
e편한세상
면세점
지그문트
라이관린
프레드릭스타
##ublic
김범수
애장왕
스타트업
동양척식주식회사
거브러여수스
미추홀구
자야드라
파탈리푸
다큐멘터리
마재윤
호아킨
##캐롤라이나
바이올리니스트
레바논
바야돌
부에노스
손경식
파라마운트
##라호마
##대안신당
Gabriel
림스키코르사코프
보두앵
쉴레이만
아낙시
암스트롱
옐리자베타
우젠슝
1운동
2TV
2단계
3기
3승
4골을
7번째
8명
Ap
Bar
CM
Cin
Dar
ET
EPL
IV
IAAF
JMA
Kim
Lib
ME
MM
Mad
MFB
Pla
Ren
Red
Ros
Tu
TEEN
UAA
Win
la
▲광주
가루
가의
가중
가이드
간단
간섭
갖는
거치며
거버넌
걷어
검색
겐나디
결제
결코
계주
계정을
고사
고성군
고문을
공기
공손
과일
과천시
교주
교사로
국도
국고
권아
권상
귀속
그쳐
그나마
글로
글과
금나라
급기
급행
급증
기숙
기젤
기자가
김익
김헌
김봉
김신영
깊게
꾸려
끌어들
나올
나라가
날개
날려
남경
남우현
납품
내수
내전
내리
내며
넓은
넘치는
놀이
뉘른
뉴올
느껴
다행
달라고
당은
대마
대광
대가로
대장군
델리
도이
도출
동작
동절
동서발전
돼지
됐고
됐다고
뒤에도
때도
때마다
라마르
라플라
라모스
람캄
레슈
레우키
레스토랑
로제
로고
리정
리한
린킨
릴리
마에
마신
마포
마약
마켓
마찰을
막강
말기
말하였다
말부터
맛을
면에서
면담을
명단
모라
모멘
모험
모빌리티
못난이
몽케
무지
무고
무굴
무거운
무죄를
문관
문자를
뮐러
미루
미치는
믹스
민국
박철
박홍
반해
받기도
받들어
배터
배나는
백복인
법관
법안을
베아
변재
병으로
병원에
보기
보일
보완
보살
보답
보탬
보였으나
본거
볼빨
봄여름
부채
북아메리카
불확
불륜
브리즈
비에
비영
비유
비방
비욘
비발디
사인
사사
사면
사냥
사죄
사찰
사생활
사재기
상산
상금
상상
상경
상향
상처를
서광
서판
서강
서바이
서대문
설이
성향을
성매매
세트
세례를
소식에
소규모
속의
속으로
속하는
손자이자
송금
송출
쇼이
수성
수양
수어
수반
수필
수나라
수시마
숨진
스리
슬라
슬픔
시너지
시기는
시어도
신원
신임을
싫어
심한
심의를
싱크
씨제이
아성
아랑
악용
안정을
안타를
않으면
알사
애프
애스턴
앵글
야노
약간
양은
양궁
엄격
없었고
에리히
에르도
엔지니어
엘튼
여성을
역학
연안
연행
영위
영역을
영친왕
오트
오비
오쿠
오너
오마르
옹성
완수
왕세
외척
외에는
외무부
요원
요나라
요리히
용담
우르비
우연히
울런
울리히
워리어
원외
원정을
위고
위에서
위나라
위트레
윈터
유전
유세
윤이상
을지로
의천
의장과
이신
이비
이즈
이계
이연
이바
이스탄
이투스
이르고
이제는
이바일
인제
인조
인어
인치
인프
인경왕후
일궈
일이다
일요일
임산
입건
있기를
자국
자그레브
잠깐
잡코리아
장원
장만
장편
재가
저희
전민
전례
전범
전폭
전지현
접전
접한
정영
정론
정화
정윤
제도가
조형
조동
조우
준수
중위
중기
중등
중단을
지혜
직할
집계
쪽으로
차녀
착한
찾고
채권
처남
철강
첫날
첫번째
초부터
최창
치즈
침몰
카지
커넥
컨트롤
케인
케플러
코치는
코모로
쿠퍼
쿠알라
타지
타슈
탐방
테르
토드
퇴출
퇴각
특성을
파벌
판소리
페레
페미
평민
평의회
평민당
포도
풀럼
플러스
피의
하세
하크
하향
하더라도
학업
학계
한반
한강
한선교
합창
항거
핸드
행위에
향년
헌터
헤파
헤딩
혁명을
현행
현수막
형님
호수
홀슈타인
홍석
화를
화상
화랑
화백
화답
화신의
확신
환자가
훈훈
훌린
훌리오
흡연
히스
##ok
##부키
##이야
##관계가
##기후
##기보다는
##산단
##과도
##과제
##에로
##지면
##지우
##86
##제학
##직이
##교단
##교섭
##원인
##MBC
##SR
##적십자
##희와
##IL
##형으로
##리즘
##장려
##장관을
##장학회
##승의
##승진
##승용
##승엽
##타인
##lor
##ace
##야가
##양행
##스피
##동으로
##아이스
##아들인
##공연을
##공직자
##시고
##난방
##일고
##일치로
##인터넷
##노가
##군정
##군에게
##순복음
##코바
##코비치
##조약
##트랜
##메시
##주식
##사도
##문제를
##마니
##마스터
##소송
##임으로
##했습니다
##우병
##우혁
##경과
##호인
##정역
##정치를
##비엔
##비언
##니크
##고문
##말라
##치쿠
##효과
##세트
##무력
##간을
##론에
##대원
##대신을
##대행을
##버린
##광장에서
##당성
##병과
##병으로
##실라
##실점
##차크
##차이나
##FM
##누스가
##천을
##만인
##만여
##국장은
##티의
##티비
##티프
##중독
##여상
##여명의
##테마
##va
##vin
##법인으로
##철과
##판으로
##받았고
##북면
##김치
##체제
##플랜
##플라이
##플로우
##운송
##퍼런
##베그
##PU
##용의
##레우
##레톤
##레스트
##브이
##태자
##됐던
##행동
##촉성
##프턴
##음과
##네는
##배의
##축을
##ky
##kin
##키우스
##ique
##피오
##피안타
##초를
##쪽으로
##덕기
##덕왕후
##DR
##VB
##목의
##왔으나
##벌을
##투안
##셰스쿠
##박물
##윤리
##슨이
##렌지
##렌코프
##환의
##히모비치
##헬기
##때까지
##톤스
##ze
##켈레톤
##뉴딜
##범은
##범과
##커머스
##팔렌
##빌딩
##헤이
##룸푸르
##ide
20만
2030
##으로의
200만
25개
있다며
한국사
한국계
한국뇌
한국가스
한국기독교
한국사회적
##위원이
##리그인
서울과
서울을
서울지방경찰청
##시아드
지역이
지역내
민주연구원
축구협회
조선군
##았다고
후보자는
국가인
국가주석
##라이드
##라이히
3월에는
시즌이다
##대표대회
12월에는
2월에는
활동하였고
활동하다가
##그룹을
국제대학
부산에서
부산교통공사
이어질
##사업인
교육청
교육위원회
교육부와
사업인
독일을
프랑스가
참여하였으며
##ille
정치국
이용대
이용표
진행자
진행해
##정부의
프리킥
방송통신
장관으로
문화의
문화도시
전라남도지사가
영국으로
중앙은행
위원장과
라이엘
이적하였으며
설립하여
##운동본부
전남소방본부
그룹인
육군은
전국적인
브라헤
스페인어
것이고
바이킹
바이마르
##any
##ana
최고경영
대상자
그러던
멤버들과
##산업진흥
기업에
따르는
태어났
롯데건설
하나를
김종민
만들었고
000만원
공화국과
방문객
2일까지
교황과
들어간다
경제의
공개하였다
출연하며
성공적
새로이
결과적으로
레이나
대회에서는
아버지이자
##회사로
참가를
대구방송
잉글랜드와
7일부터
##국민회
##국민당을
학생과
예정이던
출전하는
사망할
차지해
클럽의
고려해
자이르
김성수는
##도시보증공사
알렉시
알렉시오
프로그램으로
전문가로
항공이
마이틴
엔터테인먼트와
일부로
##메이드
##메이커
2015년부터
음악가이다
국민의당은
아시아지역
조성사업
카를루스
국립대학
발생하고
발생하였다
총선에서는
환경운동가
투수코치로
황제이다
인사들을
역사와
이끌던
조직하여
챔피언스리그의
시리즈는
제공했다
어려울
크리스털
생각하고
보고서
보고회를
##선수로
내용에
마련된
이정현
포천시장은
1880년
1889년
영입한
영입하는
경우에는
##환경을
노력한
연방공화국
찾아온
확보해
이루고
준비한
강화와
강화할
수비를
아나톨
종합대책
종합평가
경영권을
독립운동가이자
인민당
인민무력
사무드라굽타
##노동위원회
세르게이
광산구청장
보수주의
일제의
의장의
크로노
변호사를
등장했다
플레이를
해남군은
기념하는
모델이
않았다고
호남대
1861년
1863년
1992년에
해양치유
##여자중학교
이해를
이해리
##스티안
가족을
그녀가
과거사
국왕이다
김재철
서울특별시장
기존점
하이얀
삼성전자의
은퇴했다
작품으로
개선에
설치해
기반의
마을을
##시간을
1876년
1874년
총재와
문화체육관광위원회
1994년에
개인적인
사회적기업
남편이
획득하는
계승한
존재했던
노래로
4년제
공모사업에
기준을
스트라스부르
김태균
오른다
희망이
규모를
교통국
탈당하고
리버풀은
리버풀의
거두었고
남자친구
근무했다
외야수이자
1795년
유재하
보이면서
주도권을
##연대가
알바로
알바몬
발견된
임시정부의
직원들이
지역사회와
복지시설
김병숙
1654년
질병관리본부장
정상회담
래퍼이다
소통과
토트넘은
사퇴했다
선생님
주전으로
바티스타
바티스투
재판연구
태평천
아시리아
##도르프
##세이브를
마무리했다
수비수로
사태로
코치가
고민을
주목할
##정의학과
발탁했다
천주교의
수여받았다
파견하여
최우수선수
김기창
카이로
선택한
세력은
세력의
거부하고
부정적
선포했다
합당으로
제도혁명당
전주시장
야마다
아시아나항공의
우려를
차이를
고소장을
손흥민은
터키의
##사건을
체포된
집권여
민주정의당의
나누는
루스벨
맞이해
젊은이
가져왔다
서명한
##농업인
박헌영은
Albert
왕위계승
네트워크를
게이츠
낙선하고
서울고등법원에서
전개했다
근로복지
근로인민당
메리츠
부분은
가까워
조현우
목소리가
분리주의
아무도
동원하여
실제로는
탈락했다
##own
김유성
제19회
주니어스
필요하다고
단일화
단일화를
기탁했다
강등되었다
수록된
히데타
위협을
주택도시보증공사
출발을
아르주나는
사라졌다
##고속도로
아모레퍼시픽의
정재학
조용춘
행정부시장
카카오톡
##udi
넷마블은
브루클린
위키미
위키트리
유대교
여기에서
크리스티안센
사단장
##컴퍼니는
동성애
비용을
상징하는
장교로
이석형
해적단
여운형이
USA
신정식
이달의
신용보증기금
트위터에
독자적인
분노를
분노의
이혜정
좋아하는
사회복지시설
ADD
IMO
클레그
##세력의
카이사르의
미니앨범
잭슨의
여의도연구소
여의도순복음
그것을
##점검을
##교육감협의회
아시안컵
AK플라자
무산되었다
민영돈
연습생으로
대항하여
김인직
최용수
방법으로
이봉주
##유치원
SW융합
유력한
1500미터
보냈고
양승동
양승조
터뜨렸다
Rep
고속도로
쿠르드
유희열이
FK리그
끌어올
리베라
방위사업
##공학부
##심의위원회
제외하고는
처벌을
자원봉사자
아레나에서
에밀리오
응급의료
마라도나
요르요스
친박연대
카시야스
이슈가
하느님의
맞대결을
유망주
야로스와프
완벽한
국립중앙도서관
초고왕
고백했다
근황을
나루히토
동국대
갖추고
구스타브
마루기획
##감염증
제12대
제1야전군
Georg
유한양행
최하위
박완수
산악인
##마케도니아
아세안
정문호
극동방송
서장훈
이보연
허드슨
김문수
발라라마
영등포구
절친한
##000만달러
지명타자이다
친일반민족행위진상규명
단국대학교
박문성
위안스카이
저소득층
정찬성
베이비복
Netfli
유산슬
지리산
LG유플러스
동구남구갑
흐루쇼프
Michael
김복동
위축된
저질렀
함경남도
한국교통안전공단
Forb
대관식을
신군부
신해철
안인득
정근우
차인하
한가은
씨제스엔터테인먼트
노국대장
불출마를
사카모토
이브라히모비치
최문순
드로그바
오종혁
우체국
크누트
페퍼톤스
Institute
김근태
두려워
충목왕
포에니
##간사춘기
삼성전자가
민자당
손잡고
차우셰스쿠
##민주화운동
일부개정법률
KIA타이거즈
과기정통부
남연군
대각국사
자비르
##가을겨울
만장일치로
스베토
알키비아
위도도
자카르타
딴지일보
리설주
맞물려
플뢰레
레이놀즈
데이아네이라
부뇨드코르
오제세
통틀어
헬리콥
대한의사협회
한국무역협회
전국시도교육감협의회
MFBTY
급기야
뉘른베르크
람캄행
모멘텀
무지개
보탬이
볼빨간사춘기
봄여름가을겨울
비영리
서판길
용담공
울런공
이스탄불
쿠알라룸푸르
타슈켄
한국사회적기업
Netflix
0시
1무
1분
1백
1박
1번째
1패로
2집
2주간
3집
6회
7번
7명이
731
8천
Amer
B로
BK
Ca
CN
Cam
DA
DGB
FM
Free
Found
FFC
Ger
Han
JO
LV
Mi
MTV
Ne
NS
NI
OTT
POP
RP
S20
Sil
TRC
WTO
York
ubc
▲서울대학교
가경
가계
가했다
가우스
가시마
갈아
갈수록
감각
강승
강씨
강명
강좌
개점
객원
거스
거기에
건문
검출
게임을
결렬
경부
고유
고모
곤도
곤트의
공차
공예
과천
광명
괴롭
교전
구금
구조를
구실로
구이도
국책
국외
군소
권장
권총
귀인
그중
그램
그밖에
극작가
금파
기니
기사가
기량을
긴장
긴메이
김새
김평
김모
깊이
까닭
꺾은
나의
나비
남궁
남봉
남동구
내리고
네스토
노건
논평
니코스
단돌
단장으로
달랑
당위
당무
대다
대회의
덜어
데스
데드
도루
도사
독거
동래
동거
동향
동교동
드와
디제이
뛰어나
뜻하는
라부아
랜드
레프트
로번
로테르담
리포
리살
리승엽
마레
막바지
만력
만인
만찬
만하임
만네르
말은
말리
맡으며
멘데스
명에
명단을
목을
목사는
목표를
몰수
몰도바
무주
무선
무스타
문부
문과
문준
묻자
미트
미소
미쳤다
미테랑
민회
민속
바빌
박신
박항
박광
박덕
밖으로
반납
발령
밝고
밤에
방시
방식을
방안에
배울
백년
백예
버섯
번갈
범위를
벼슬
별개로
보지
보전
복잡
본인은
볼레
봉쇄
부당
부녀
부인은
북동
북마케도니아
비다
비타
비야
비르
비긴
비전을
빅터
빈대인
빔비사
빚었다
사자
사천
사네
사브르
산둥
산하기
살던
살레
상담을
상수도
색소
생일을
서자
서훈
서청원
선대
설을
설계를
성모
성능
성금을
세포
셰이크
소관
소추
소헌왕후
손목
수치
수술
수사가
순원
순환
스켈레톤
시점에서
신약
신센
신기술
신도시
실태
심리학자
씨도
아지
아픈
아델
아넬
아프로
아스카
아그리
아버지를
악수를
악플러
안장
안겨
안으로
않으며
알린
알지
알브레
압력을
앙주
앙투안
애칭
액상
액션
앨라
양상
양자로
양성과
어촌
어른
어시스트
업황
에코
엘시티
여당의
역에
역설
역사는
연립
연중
연개소
열정을
였던
영종
예로
예상을
오나
오락
오리에
오렌지
왕가가
우중
우울
우거
우라와
울라
원이
원산
웨슬
위스
유가
유해
유물
유언
육사
윤지
윤리
윤세
윤홍
윤미래
율리
은하
은언
응용
의식을
이산
이니
이필
이례
이륙
이룰
이들에
인건
인촌
인간의
일관
일당
임병
입지
입상
있으면
잊지
자메이
자전거
작가의
장지
장진
장착
재발
재일
재경
저택
적응
적자가
적십자
전락
전일본
점심
정차
정회원
정면으로
제보
제대
제재
제23
조수
조회
조중
조심
조오
종영
주일
주필
주도의
죽기
줄여서
중독
중에서도
중회의실에서
즈음
지오
지녔
지단은
지시로
집무
차용
착륙
참사
처치
천리
철도가
초과
초월
초까지
최동
최익
최측
최정우
최동석
추서
추신
추징
축사
출전을
치타
치뤘
치료를
친형
친화
친왕
친동생
침묵
카네
카바
칸국
캠벨
컨페
컨텐츠
컬렉
케냐
코리
코시
코마
코민
퀘이
클레이
키보드
테이
테니스
토목
통장
툰베리
트윗
티센
파산
파업
파커
파트리
판정
판사로
팬들과
퍼져
펀드
편의를
펼치며
폐렴
포뮬
폭파
폭력을
프레스
피력
피신
피버
필드
하마
하급
학무
학파
학과장
한기
한지
한데
한광
한림
한샘
한종현
한사람
함양
항해
해군은
해소를
했을
향토
허성
헐리
헤센
헨드릭
현정은
호콘
혼합
홈경기
홍시
확대에
황실
황위를
회사가
획기
후원으로
후신인
휘트니
휴대
히토미
##ron
##라나
##서도
##부리
##부대로
##이용
##위성
##창출
##자라는
##자마자
##관리를
##기며
##산면
##산림
##성장을
##성과를
##에스티
##지라
##지법
##지였던
##영상
##직업
##EM
##EL
##가이며
##가톨릭
##적이다
##전적
##전설
##전대
##장에게
##타고
##타점
##워치
##양은
##스완
##공제
##공유
##공모
##시라
##시안
##시행
##일으
##인한
##노와
##코스는
##코치를
##트루
##트인
##트링겐
##주행
##단일
##사장
##사진
##문도
##문에서
##립대
##립도서관
##마와
##보의
##소울
##포엘
##해에
##해준
##호퍼
##비어
##비스는
##약한
##니와
##넨은
##고지
##치스
##무관
##무용
##학박사
##선에서
##삼성
##더블
##광장
##광고
##병원이
##국악
##파이어
##티와
##즈네
##즈버그
##중에서
##여왕
##여명을
##테를
##크에
##질서
##법과
##판사
##심리
##두에
##두리
##오면서
##먼은
##체에
##올리브
##족과
##콘신
##베이스
##구라
##구리아
##런의
##레네
##방으로
##태권도
##활성화
##거점
##책에
##재는
##재형
##연과
##셔리
##러시아
##네부르크
##귀족
##예원
##me
##내에
##내용
##속기
##속에
##총국
##burg
##폰을
##덕왕이
##채를
##폐합
##급의
##취소
##취한
##란과
##란의
##독한
##모도
##VE
##uk
##uen
##목상
##확보
##빈의
##갔다가
##투위원장
##꾸기
##빙상경기연맹
##매는
##밀히
##work
##났을
##저의
##링크
##훈과
##헬로
##풍력
##혜경
##푸스
##렸는데
##커뮤니
##펙트
##폭력
##밖의
##ords
##ella
##ike
##iness
##erry
##ato
10명의
12시
12세의
200만원
대한노인
대한무역투자
22년
23년
한국으로
한국에서는
한국소비
##에게만
##ester
##ters
경기북부
광주시장
광주과학기술원
1981
대표에
대표적으로
서울월드컵경기
일본과
일본군의
일본사회당
프로토
축구의
조선을
365
##erson
의원들을
의원직을
자유시
자유계약
후보자가
국민모임
국가원
##라이스
감독이자
##리스가
1950
##교육과
7월에는
활동하기
지원사업을
현대증권
사회당의
사회운동가
사회맞춤형
부산지방경찰청
제1부
##사업부
삼성생명
교육과정
사업부
독일어
프랑스를
중국은
운영한
정치권
정치의
정치가로
이용재
사이가
사이슈
방송이
방송에서는
##센터의
##30분
개최하여
러시아어
전라남도에서
##ics
영국과
자유한국당의
이름과
이름인
##본부에서
민주당계
이사회를
설립자인
##자로는
김영권
이번에는
선거는
추진하겠다고
전남체육
공동주택
인천공항
한편으로는
그룹은
코로나19를
육군참모총장
아르놀
##기업은행
전국구
전국여성
스타얼
##우스가
브라흐마
##연구원은
##ance
##산업단
실시할
실시하였다
롯데케미칼
##기관과
시민에게
18일까지
2019년에
5일간
000만원을
우리금융
24일까지
국회는
3일부터
들어갈
2012년까지
올해로
올해부터
##스크를
2016년에는
로마와
된다고
행정구역
9일까지
16일부터
알려지지
알려지면서
##법원에
야구장
2010년부터
8075
처음에
처음이다
##문화재
유럽연합
유럽대항
참가하고
참가했고
제2의
제2작전사령부
##스코프
대전이
대전지방법원
예정이라고
진출이
출전하면서
##항공기
정책은
정책으로
제작해
제작하는
29일까지
시절을
임명하고
2013년까지
2018년까지
프로그램에서
지방에
창당하고
엔터테인먼트가
마드리드에서
왕조인
2015년에는
##왕후는
음악적
자이언츠와의
조성욱
조성하고
마르티
생활이
##시키려
주민과
주민등록
골키퍼가
역사적인
이끌며
전투기
전투이다
사랑에
결승골
학교의
지지하며
선출되었고
챔피언스리그를
##인으로서
광주시당
광주시선대위
구단으로
연맹은
1892년
1891년
조선민주주의인민공화국은
생각해
에드윈
전달식을
연합하여
작곡가로
1년을
취임을
국토해양
보고서를
기술개발
유나이티드를
청년창업
두산그룹
1882년
보도를
보도한
지휘를
입단을
만나는
이미지가
기여했으며
동아리
동아에스티
김현중
이루지
강화하고
언론을
언론사
타이거스의
독립운동가인
인민군
사무소
기독교를
이전에는
인물을
시행에
##정책관
##정책에
CJ올리브
##자원부
103위
평화통일
결성해
결성되었다
플레이어
지명한
지명되어
공연은
원내대표와
해외취업
##프로젝
토론회
예산이
1864년
##stem
과거에
모스크바로
고객을
고객에게
연기자
이야기는
계열사로
레드불
작품은
작품이
6세는
설치되었다
건설교통
충청도
홍보에
단체인
순천시청
비례대표로
총재의
파리의
파리바
청소년들의
포지션을
혁신적인
담당하고
센터에서
인스타그램을
요시프
개인전
올랐고
활용하는
애니원
예방접
성남FC
라이온즈가
남편을
시대가
제기되고
확정된
김동연
내년부터
대변인이
##과학기술대
공모전
김태희
강조하며
전두환의
오르게
선임했다
GS칼
근무하였다
외야수이다
최우식
서로를
소유의
SK텔레콤의
김용환
신익희는
1950년대
활성화와
Union
1833년
의미로
이명희
직원들의
직원들을
김병우
김병철
조정의
협약식을
아틀레틱
동양대
소통을
소통하는
신동아
친구인
파이퍼
개그우먼
대부분은
##슈타트
부르기도
조약으로
강점기와
김수민
김수근
박성철
세웠고
주식회사는
예술가
김상호
전환을
배출한
추천으로
수여했다
수여하는
신성모
파견된
김정일이
대공국
대공국의
박우진
육성사업
대동청년
부임하였다
부정적인
##독립운동
##스케어
야마토
공유하고
아사다
아사달
##장관회의
검사장
나선다고
본부장으로
##프리드
비난했다
특수부대
기상캐스터
김창수
미나미
불러들
불러일으
바꾸는
바꾸었다
건국대학교
시상식에서
이야기꽃
한국시리즈는
한국시리즈에
낙선했다
이대수
지냈던
항공사인
살해한
여론이
인근에서
단독으로
조승수
총괄본부장
운행하는
침공을
동원그룹
##ower
성과와
성과가
불가리아의
수록곡
천안함
평균자책
정성호
편성해
거듭나
건륭제가
보니하니
자녀를
정재숙
스피릿
유사한
헤이안
스틸러스에
박찬종
##ciet
2루수로
김소영
SK하이닉
이태규
전날인
지상욱
광역권
미야모토
이석기
이복형
프리메라리가의
더블을
화이트삭스
우루과이의
유아인
간부공무원
이춘희
베네수엘라의
보성전문학교
사커의
가경제는
아리다이
고령군
노인복지
막내딸
KOTRA
곽상훈
율리우스력
##농구연맹
ITZY
##ARD
CSU
Paul
##평화상
물려받았다
이의방
효율적인
대림산업은
어렵게
바이어컴
김한길
신의주
투쟁을
규정하고
박은옥
사르코
정진석
##파이브
시민의힘
등판해
한양대학교
가즈나
김도읍
조르주
하야시
백두현
승진하여
페르디난드
코트디부아
ABBA
그랑데
노스캐롤라이나
전략기획홍보
내놓은
연락이
중부지방
관장하는
신앙교리
일렉트로마트
알루코
트렌트
홍익표
자율주행
차단하기
하후돈
혼란에
사다하루
헤라클레
Project
다문화가족
뛰어넘
밝혔고
불거진
우드빌
##터미널을
Societ
유스티누스
개소식을
브라이턴
조반나
충격적인
야로슬라프
칭기스
KAIST
연루되어
테크놀로지
프로모션을
동국대학교
디스커버
박기혁
서인영
손꼽히는
어디서
명예회장을
각본가
바실리
수료식을
스트리밍
털어놨다
##ORPG
##AFF
에두아르
장세용
평안북도
게르하르트
어깨를
순천만국가
▲문재인정부
▲문재인대통령후보
비슈누
살라딘
박람회
##기압의
슈퍼스타K
IBK기업은행
Alex
모나코
보헤미
정희왕후
국산화
정준영
조속히
토스카나
히로부미
김아랑은
기동민
김서현
김남현
문효세자
전소미
정미수
엄홍식
정관장
천계제
포켓몬스터
광주지역위원회
아르투로
플로렌티노
세븐티식서스
##사회복지공동모금회
펜실베이니아주
Edward
뜻깊은
며느리
춘천지방법원
선거인단
각별한
바꿨다
이돈명
프리스틴
하랄드
Black
안젤리나
안드로이드
플라멩구
트라야누스
Daniel
노원구
니스텔로이
서진용
팀버레이크
협주곡
##수목원
루프트한자
거느리고
머큐리
서병수
설경구
아픔을
광주혁신포럼
CGV
김좌진
리조트
초등학생
푸스발
선임행정관을
한국인터넷진흥원
원더걸스
미켈란젤로
AMD
▲김대중
노하우를
임태훈
호메로스
##교향악단
행정자치부
연대자유노조
에두아르트
방글라데시
Philip
데포르티보
문체부
##선발승
국민건강보험
☎031
기리보이
던킨도너
리셴녠
문익환
삼민투위원장
아워홈
아드리안
인교진
##손해보험
국립아시아문화전당
베르나베우
가나가와현
GC녹십자
MMORPG
막강한
브리즈번
시어도어
정론관에서
헤파이스
한국뇌연구원
위키미키
Forbes
Foundation
김평모
만네르헤
민회빈
박항서
방시혁
비다쓰
색소폰
신센구
알브레히트
위스콘신
천리마
최측근
대한무역투자진흥공사
신앙교리성
1명이
2심
3분
3골을
3패로
4억
400만
50년
5명의
5개월
6만
6명의
7명
8세가
90년대
A로
At
Am
A씨가
Bea
BPA
BLA
Bank
CH
Cal
Dev
Eug
Ib
JU
KS
KFA
KRI
LAT
Live
Mc
Mart
Mon
Oh
OF
Pri
PFL
RM
SI
Su
San
Ta
TA
Ti
Tra
Tom
Ver
Vol
ZARD
n번
ال
▲전
가가
가든
가오
가요
가쿠
가깝
가하고
가시와
각국
각지에서
갈리스토
감동
감행
감성을
강은
강임
강동원
개표
거리를
걸린
걸고
검정
겪은
겸비
겸하고
경인
경복
경력이
계원
고영
고차
고통
고미
고향을
곳은
공은
공소
공무
공병
공표
공약을
공군은
과수
곽재
광개
광무
교향
구직
군나르
굽타
궈안
근교
글렌
기로
기하
기병
기리고
기사단
기리기
기회로
김교
김립
김웅
김완
김남준
끈다
나눌
나가는
나시오
나바로
날에
낮아
내일
내주
내에서는
내부의
넓혀
넘기는
넘겼다
넣고
노관
노장
노하라
노리치
노지훈
높이는
누군
눈물
다수가
다르게
다보르
다루는
다비트
단호
달라이
담임
담배
당직
당을
당황
당원이
대지
대권
대진
대선을
더했다
덕흥
도제
도저
도둑
독보
동조
두르
뒤에서
드니
드레스
드라가
등번
디펜
디발라
딸과
딸의
땅볼
떠나는
라싱
랄프
럭셔리
레프
레제프
레너드
로디
로펌
로저스
로런스
루빈
리슐리
리구리아
마진
마운
마네
마스코
마운드
마커스
막판에
만토바
말레
말에는
말기에
말하자
말라가
맞춤
맞트레이
매키
매디슨
맥길
맥밀
먹방
몰랐
못말
못했지만
무서
무솔
무기를
묵살
문종
문예
문교부
미치
미스트
민병대
민우혁
밀리
바닷
박순
박보
박대
박평
박사를
박용진
반군
반기를
반격을
발각
방계
방지에
배나
백석
백태
밴드로
버전
버전을
버전은
법원에
베르크
변수
별로
병원에서
보관
보류
보리
보우
보비
보름
보물
보다는
보아르
본질
본부에서
봉사단
부안
부착
부각
부대로
부천시
부인이다
북송
분담
불구
불리고
불어넣
붓다
비로
비류
비리로
비자금
빅스
빈센트
빙상
빚은
빛가람
빠졌다
뽑아
사하
사간
사료
사드
사격
사재
사범
사고를
삼은
상권
상시
상처
상쇄
생명을
서영
서버
서철
서한을
석탄
선서
선덕왕
설화수
성도
성일
세금
세바
셀럽
셀레우
소양
소식
소총
소극
소홀
소문이
소생의
속도
손아
손실
손태영
쇼미
수제
수보
수의사
수술을
숙종
순정
순교한
슈바
스퍼스
시세
시책
시도를
시시오
식사
식당
신기
신소
신비
신덕왕
신진당
실리
실베
실용
실력을
심은
싱클레
싸우는
쓰촨
아그
아민
아유
아예
아펜
아벨
아리아
아들은
알비
애너
앨리
앨비언
야심
약간의
양극
양측
양산시
에머
에리얼
엔터
여사의
여왕이
여상규
역습
연다
연석
연임
연기를
열정
열렸던
열악한
예편
오닐
오디오
오르는
오일러
온누리
올가
옵션
옹정제
와인
완화
완전한
왕과
왕당
왕이었던
외야
외젠
외스터
우문
우완
우측
원리
원장을
원인으로
위임
위니
위스키
위기가
위주로
유창
유디
유지를
육아
윤호
윤씨의
윤대희
응시
의문
의향
의붓
의사가
의회에서
이호
이데
이북
이케
이온
이츠
이충
이었던
이경제
이스트로
이태영
인가를
인조의
인연이
일도
일일
일레븐
일주일
임해
입교
입찰
입학을
자릿
잔디
잘리어
장의
장르를
재출
재키
저우
저스트
저항을
전우
전작
전미
전화를
전술을
전덕기
절반을
점은
점성
정을
정대
정강
정채연
제천
제위에
제럴드
조장
조여
조모
조롱
조치로
조나스
종손
좋다
주영
주호영
준장으로
준회원
중형
중이라고
증액
지었다
직선
진상규명
질문을
집합
차가
차출
체사레
첼리스트
초콜
촉진
총애
총액
총리에
총사령
최악
최선
최윤
최첨
추자
추도
추석을
춘추
출격
출근
충선
치킨
치세에
카가미
칼럼
캄페오
코네
코바
코야마
코퍼레이션
쾌적
쿼터
크립
클락
클러스터
키프
키엘
타르
타개
탐사
텐데
토우
토치
투자가
투구를
트리니
특급
티맥스
팀이었던
파타
파일
파슨
파브레
판로
판사에
패전
펀자
페터
펼쳤고
평의원
평소에
평범한
폐막
포를
폭격
폭염
표명했다
푸드
풀어
풍성
프톨
피치
피할
필름
필하모닉
하페
하얀
하우스
한창
한병
함연
함으로써
했기
행정을
행위가
허버트
헝가
헤르타
혁명이
현안을
협연
협정을
협상이
혼성
홀랜드
홈즈
화해
화가이다
화가로
확실
황진
황인철
회원이
회원으로
효명
후추
후예
후백
휴관
휴가를
힘써
##hr
##e스포츠
##eph
##yn
##수지
##수경
##수요
##수칙을
##부대의
##린과
##이면
##위와
##창이
##창원
##창을
##관리에
##관계에
##산학
##산맥
##에너
##지수
##지야
##지청
##지부는
##87
##2명
##EA
##적이었던
##숙주
##형외과
##승이
##회담을
##타수
##야의
##야만
##스만
##동이
##동현
##아스터
##공인
##공개
##공무
##공예
##공주의
##시장이
##난을
##일인
##일즈
##일체
##일렉
##인천
##인트를
##조로
##조직을
##트롯
##ny
##ns
##주얼
##주기를
##주민의
##건과
##설은
##설계
##단인
##엔젤
##상부
##상선
##상현
##사퇴
##신당의
##하되
##추는
##추지
##어때
##어졌다
##임과
##임에
##임시
##포장
##포병
##우승
##준의
##해도
##경북
##경연
##정관
##니를
##고는
##세자와
##세브란스
##무로
##데바
##토와
##대회의
##학은
##나카
##버스를
##광과
##광주시
##당하여
##되지만
##되다가
##차와
##디가
##디션
##업소
##열에
##게니
##파한
##티가
##티온
##페로
##여학교
##슈테
##민정
##민스터
##ven
##to
##법은
##철도시
##철학을
##판서
##등급을
##척의
##오케
##드루
##드리고
##드립니다
##체제를
##플래
##분투
##분쯤
##운이
##율로
##골과
##베를
##편의
##런드
##센스
##PM
##레츠
##레스는
##레마이
##태에
##미한
##절히
##됐지만
##됐는데
##행위를
##음식
##현안
##러가
##종금
##종목
##반기에
##ker
##익은
##협정
##협력을
##키르
##피나
##패키지
##클라
##살을
##G의
##평양
##평의회
##왕에
##BL
##독일
##모에
##WC
##넥스
##urt
##례로
##손실
##블루
##님께서
##근로
##근이
##났지만
##쓰고
##킨다
##링으로
##ов
##훈을
##셀릭
##날을
##X의
##za
##범의
##잉글랜드
##혐의로
##콜센터
##풀이
##믹스
##els
10분
##lob
##low
12세기
16세가
26개
있다면
한국은
한국방송
한국여자
한국폴리
한국외국어
한국기록원
한국e스포츠
한국철도시
##0년부터
지난날
##7년까지
##5년경
##5년에는
광주학생
대표작
대표되는
##면서도
함께했다
선수들의
대통령이었던
대통령직을
이후인
일본명
일본서기
미국프로
지역발전
지역경제를
##iga
축구단으로
##주의에
1976
국가로
##라이즌
##하게도
1월에는
1월까지
50만
##레이트
1960
1959
450
활동은
시작하였으며
국제적으로
국제빙상경기연맹
현대아산
부산교도
부산과학기술대
이어받은
우승의
삼성카드
교육은
교육부가
교육과학기술
열린민주당
운영자
운영하게
이용자
방송에는
방송인이다
개최될
개최됐다
개최국으로
러시아는
러시아와
연구로
군수를
장관상을
문화가
전라남도체육
영국에
중앙도서관
자유한국당은
회장이다
라이선
##대학이
설립하였으며
SKC
##운동연합
국회의원선거
추진하였다
추진하여
추진하겠다
추진하기로
인천항
그룹에
이탈리아를
영화가
영화의
육군훈련
발표하여
발표하였으며
##연구가
##연구원이
10일까지
대상은
통합으로
통합항공기
모두를
##복지관
사람도
멤버들
전쟁과
이승우
이승엽
기업체
기업들이
타이이프
롯데호텔
시민들과
미래의
3세로
만들겠다
광주광역시의원
##하자고
교황의
교황령
##사회에
공격에
공격으로
공격하기
주장과
들어선
들어가는
들어갔고
FISU
하였다고
수상이
수상하며
행정1
행정명
##정보를
전북대
전북지역
계획하고
상황은
경기에서의
##ision
2008년에는
레이찬
레이싱
레이솔
레이먼드
레이카르트
공식적인
##문화의
##문화방송
국가대표로
사실과
중심에
중심지로
참가했으며
제2군
##스코리아
경찰관
LG이노
대전시
대전시티
학생들은
진출하였으나
KB국민
2019광주
구성되었다
국내에
##위원장과
##위원장의
받아야
##로부터의
왕국으로
결혼이
29일부터
체결된
##chi
김성환
베트남은
2013년에
##통합민주당
다이어트
##지역으로
프로그램은
프로그램인
전문성과
최근의
지도부
##장으로서
2006년에는
2007년까지
뉴욕의
그리스는
그리스와
그리스어
자이언츠가
자이언츠에서
역임했던
국민의당에
수도를
##후보로
발생함에
특별전
주민참여
황제와
최종전
골키퍼는
지속될
역사에
역사의
조직의
2000년까지
경상도
안전행정부
올림픽을
##교회에서
제공을
광주시와
광주시가
연맹이
생각한
전달한
##베르투
가능성에
취임하면서
2003년부터
박근령
역할과
노력에
연방주의자
요구에
확보하는
비판이
동생이자
협력으로
강화하는
강화하기
포르투는
대응하고
총리였던
경영권
##라인베스트
독립운동가들의
사무를
##증권은
한나라당은
이전까지
인물은
인물들이
##시즌에
계약에
보건복지부와
인도아
##정책의
##자원봉사단
게임이다
유지했다
공연과
출시하고
복귀한
않았다는
1506년
반대하여
1986년에
요청으로
이해식
이해하고
헝가리와
정권은
국왕과
생산을
생산하는
검찰의
하이라이트
정보보호
의혹도
이야기가
설치하고
후반부터
후반전에
충청권
단체를
단체장
총재는
회의에서는
1859년
수립하였다
유일의
##연구원과
득점하였고
문제와
담당한다
유튜브에
활용하여
확정됐다
패배했다
존재로
존재하지
노래는
Station
Star
1840년
브리타
브리트니
선보일
##ass
에어서울
에어아시아
거두어
바로크
오르자
합류해
합류하여
##행정복지센터
박주호
박주정
나오토
실패를
GS건설
1799년
1793년
승격을
승격되었다
유진섭
유진그룹
가입을
가입한
교체를
교체되어
500여명이
서구청
1592년
김용호
김용춘
남아있
최대주
지정되어
경상북도교육청
소방청
1377년
전반을
##스카르
경험한
전통을
제이크
제이미
런던에서
런던으로
발언으로
직원들과
유로에
주인공이
주인공인
그리하여
집중할
포항제철
##혁신도시
##혁신지원사업
장성군은
조정식
조정래
창업자
아이유가
시설물
동양화
프레더릭
창립한
파이기
프로젝트는
사퇴하였다
##파크에서
정치인들이
정치인이자
부진에
일자리위원회
이스라엘의
전시회
후계자를
##보건의료
하이트진로는
김진우
홈런으로
도입하여
책임이
클라라
김구의
사태에
ACF
해결하기
1819년
1815년
히틀러의
물리학자이다
보호하기
타이거즈가
스토리를
군주로
군주인
투입되며
신성로마
열린우리당의
육성하고
이르쿠
이르렀
케이티
와이번스와의
정신건강
아키코
후임자인
드래프트를
NH투자증권
발굴하고
노벨평화상
비상대책
제5대
코로나바이러스감염증
대우자동차
후쿠시마
##스포츠연맹
##ission
K리그1의
선제적
원래는
개정안
개정안을
이주열
골든차
김경진
맞이한
1624년
7세는
에르난
자격이
자격증
캠페인에
효과적으로
구매할
선고했다
경선에
반면에
시상식을
우주비행
오클라호마
정기석
협의체
도착했다
이외에
1000여
공헌을
응원하는
1829년
나라에서
여운홍
##조정관
금호고속
모터스와의
들어가게
기아산업
박종구
종로학원
Rock
기탁했다고
드림스타트
사전예
요리연구가
정성필
출발하여
사라진
정재훈
정재학의
보르지
유사룡
이화여자
김희겸
내세운
수익성이
Mauri
문학평론
신속히
신속하게
여기어때
소비자들에게
남성희
머물고
왼쪽에서
이론물리학자
전역에서
프로게이머이자
가치가
결의안
전당대회
호소했다
1천만
스톤스의
정인숙
창출을
메디컬
보성군은
체계적인
친정팀인
6개월간
동일하게
댓글이
류현진은
배트맨의
이준의
입문한
KOF
단계로
단계적으로
한번도
ADT
##달라며
MLS
아름답
전속계약
오페스
웨스트민스터
파르네
효율적으로
시티즌의
무산되었고
공약으로
현황을
전남대병원
아우구스투스의
Eng
미스터트롯
저지른
Christoph
앞장서겠다
경고했다
##기독교교단
##범죄수사
다케다
맞붙은
한마당
1500m
느끼게
러브콜
호흡기
예고했다
정유미
최성원
넷플릭
윤성환
페론주의
홍문종
히트곡
정부서울청사
경산시장은
구로다
구로구
방사능
브로즈
서포터
3번째로
UCI
쇼핑몰
스크린
시조인
오프닝
Frank
France
올스타전
마라도나는
바그너
밝혔으며
불거졌다
주시은
지소미아
기후변화
탄압을
2연패를
남쪽의
법조인이다
인류무형문화
좌절되었다
##미술관
아랍에미리
상회했다
용산구
##프랑스
총선거에서
디스플레이
자발적으로
급격한
동해선
로렌초
무릎을
패스트푸드
##어린이집
아라곤의
김효진
무너뜨
옥타비아누스
울림엔터테인먼트
평안남도
##중소기업
CDU
레즈너
마흐무
마흐디
설문조사
설문조사를
우호적인
스토리제이
김천일
무실점
펼친다
걸스데이
스플리트
정다은
IBK투자증권
NLB
남인순
블록체인
영등포
전도연
중대본
호크스의
Samuel
내걸고
손해배상
트로피를
FSV
고코묘
레나토
분명히
비주얼
아람코
##미사일
블레어
스왈로스
홍무제
KEB
Party
노보셀릭
수수료
정창선
총동창
예브게니
##호르스트
##크루프
문화경제부시장
니에토
동백꽃
##수행게임
United
THE
금정구
모교인
소르칵
아역배우
알론소
점유율
즐거움을
##석유화학
정례브리핑에서
다이아몬드백스
캐벌리어스
구한말
김관영
로코모티프
버트런드
호그와트
내세우며
다중이용시설
디오니
류사오치
수험생
이코노미
증국번
쿠사나기
홍보대사로
Angel
Afr
고로쇠
볼리비아
서고트
썬더스톰
이화학당
조로아스터
히딩크
##유공자
##응급의료
세르반테스
김예림
노르트라인베스트
안규백
이목희
##인터내셔널
JIBS
Sarri
나중에는
송대관
어두운
예보했다
조진웅
트레일블레이
해쉬스완
##helm
한국지역난방
광주체육중학교
기념촬영을
우선협상대상자로
권아윤
베아트리
변재일
아랑전설
에르도안
우르비노
장만월
국제대학스포츠연맹
알렉시오스
방위사업청
Georgia
LVMH
TRCNG
남봉현
드와이트
라부아지에
볼레스와프
지녔던
컨페더레이션
컬렉션
퀘이커
티센크루프
포뮬러
대한노인회
사이슈나가
아르놀트
평균자책점
보헤미아의
국민건강보험공단
LATAM
강임준
광개토
리슐리외
마운틴
미스트롯
박평식
서철모
성일종
실베리오
아펜젤
애너하임
외스터라이히
윤호중
카가미네
캄페오나
키엘리니
프톨레마이
하페즈
한국폴리텍
한국철도시설
통합항공기제작
LG이노텍
대전시티즌
Maurizio
노르트라인베스트팔렌
한국지역난방공사
프톨레마이오스
1점
2호
3점
3종
4인
5차
5분
5명을
6경기
7골을
7개의
700여
9개월
AL
Air
B1
B의
Bus
Bas
Bund
BSC
C는
CL
CB
CU
Cath
Children
Der
Dem
EL
Em
EFL
EAFF
Fed
G1
Ga
Gar
H조
How
Ind
Jul
K팝
KBC
Kev
Lee
Mor
NY
OZ
Po
PM
PO
PA
Pol
PFC
QLED
Ras
SO
Ser
SHO
To
Tw
TX
Tel
VR
Wom
㈜오
가려
가결
가졌던
가메야마
가디언
감지
감찰
강아
강주
강지영
강동구
갖는다
거장
거세
거룩
것에서
게르트
겨루
겨우
견조한
경합
경로당
계절
계양구
고랑
고명
고취
고메이
고타마
고유의
고기압의
곡이
곡이다
곤도르
골라
곳의
과이도
교직
교감
교장을
교회에서
구루
구소
구봉
구카이
국순
국민주
군림
군용
군의회
굳이
권성
권역
권선
권위를
규칙
그들
그쳤
그라운드
금속
급진
기고
기쿠
기예
기자로
기부를
기무사
긴테쓰
긴즈버그
길이
길에
김득
김충
김낙
김지영
깨고
꼽힌다
끝났다
나일
나간
나렌드라
낙후
남로
남녀
남침
내준
내부에서
넘기고
넣으며
네아
노소
노비
노병
노바
노형욱
녹십자
놓은
눈앞
능주
니노
니혼
닛산
다마
다롄
다졌다
다국적
단단
단테
달한다
달성군
당하였다
당하여
당하며
당중앙
대에
대영
대가
대의
대주주
대머리
더이상
덕수
던져
던졌다
데커
도민의
독단
돌리
동갑
동유럽
되겠다
두드
두번
뒤스부르크
드렁
드레이크
디보
디테
딘딘
딸이었다
땅에
똑같은
뛰며
뛰면서
뜻밖의
라면
라요
라네
라벤
랴오
레기
레지
레노
로얄
로트링겐
록사
루퍼트
르노
리베르
마데
마저
마밍
마동석
말론
말할
맘루크
맛있는
맞췄
맡겼다
맡았으나
매리
맺는다
메모리
멜론
면모를
명과
명시
명실
명종
명단에서
모닝
목사의
몸담
몽고
무단
무등
무앙
문주
문헌
묻는
물질
미상
미르
미운
미투
미하라
바우
바나
바닥
박노
박효
박물
반포
반민족행위
발열
발기인
배리
배송
백혜
버니
버티
버핏
번도
법적으로
법원의
법사위
베일은
별명이
별개의
보반
보강
보였고
복위
복권
복용
봉기
봤다
부주
부설
부응
부인이
부대가
부군수
분신
분량의
불펜
붙어
비아
비와이
빨간
뽑혔
사관
사안
사나
사파
사명
사생
사모
사형을
산남
삼양
삼별
상세
상표
상주시
생가
서임
서약
서효
서한
성인이
성장에
세번째
세금을
세우는
세상에
세자르
소매
소성왕
송기
송환
송나라
쇄도
수련
수코
수문
수천
수질
수확
수색
순이익은
술을
숨겨
쉬페르
슈가
스펜
스쿼
스이코
시를
시중
시뮬
시인이다
시점에
식으로
신이
신승
신야
신중
신혼
신탁
신념
신춘
신화의
신기록을
실은
실어
실버
실축
실권을
심도
심화
심슨
싶다는
쏘스
쏘아
아후
아편
아놀
아탈
아비스
아라비아
안기
안네
안남
안톤
안팎
앙골
앙그라
양준
어쩌
억울
업데
없기
엇갈
에시
에리카
엑시
엔시티
엘비스
여영
여주
여진
여부가
연을
연초
열대
열광
열었고
열기로
염따
영친
영빈
영조의
영부인
영의정
예약
예멘
예수가
예명으로
예하의
옐로
오창
오산
오진
온갖
옷을
옹정
완산
완봉
왔으며
왕녀
왕권을
외주
외계
외환
왼발
요양
요람
요인이
용의
우지
우르
우치
우효
우정을
운행을
울프
원고
원종
원혜왕후
월급
웨딩
위헌
유형
유임
유광
은거
은혜
음모를
의류
의경
의회를
이서
이가
이든
이색
이닝
이윽
이렇
인원
인상을
인지연
인연으로
일류
일삼
일등
일축
일었다
일상을
일대를
일대에
일리네
임을
입장에
있으므로
자가
자르
자선
자파
자생
자리가
자문을
자랐다
작가이다
잠수
장소
장치
장충
장학생
재보
재거
재팬
적정
적어도
전제
전하는
전역을
절도
점과
접견
접전을
정서
정벌
정도가
정봉주
제어
제위를
졌다
조나
조짐
종군
종파
주에
주당
주었고
주연을
주승용
중성
중개
중고
중복
중증
쥬리
증정
증진을
지수
지칭
지시에
지시를
직격
직원을
직장인
진종
진패
진언
질을
짓는
짱구는
차세
차관은
차관이
차량을
찬탈
찬사를
참관
참견
참고로
참이슬
찾을
채로
채취
챙겨
처칠
철학과
청사
청심
체리
체제가
체제의
쳤다
초점을
최도
최건
최후
최예
추혜선
축제로
측면에서
치르고
카스
카우
카나
카츠
카르도
칼리아
캐리
캐시
캐주얼
커다
커리어
케니
코카
코끼리
콘테스트
쿠우
클랜
키우
키몬
키우기
타운
타구
타노스
탄탄
탓인지
태생
태연
태자로
태진아
텔아
토에이
투옥
투구
특산
특성
팀장
팀내
파월
파머
파병을
판문
팔메
팔꿈
패퇴
패망
패키지
펄어
페인
페레이
펠로
펼치
평화를
포상
포토
포세이
폼페이
표출
표결
표도르
풋살
피르미
하르
하기로
하승진
하포엘
학자
학점
한은
한시
한달
한탄
한껏
한학자
항복을
해부
해의
해고
행진
허리
허경영
헌납
헤아
현립
형이다
혜문왕
호는
호위
호투
홈으로
홈쇼핑
홍진
화신
환율
황보
회수
회견
효창
효현왕후
흐름을
히메
##han
##hard
##ock
##랄라
##라자
##라치
##라미
##라스와
##다를
##다오
##수상
##수용
##수칙
##로스가
##로타리
##이든
##이션
##위아
##창용
##자격
##자에서
##자리에
##자원을
##기소
##기게
##과정을
##도미
##도움을
##지은
##지크
##지기도
##지부장
##지주는
##지킴이
##82
##제인
##제품을
##원큐
##EN
##가량
##가고
##전력
##전공
##전환
##리쿠
##장비
##장치
##타노
##타우
##타크
##car
##cast
##야샤
##역할
##동화
##아라
##아프리카
##공과
##공신
##시태
##시킴
##시하는
##인협회
##노부
##노창
##노브
##안정을
##코와
##코어
##그린
##조리
##조작
##상자
##사원
##사범
##사기구
##사고를
##사례를
##하스
##마로
##어업
##어이다
##진주
##보아
##보상
##소원
##소재
##포스트
##해의
##해상
##해줄
##해지자
##해사기구
##개편
##정권
##비브
##비밀
##니스터
##고스
##치에서
##세다
##세와
##세인
##무의
##무신
##무한
##대국
##대군의
##대장군
##청정
##선사
##궁주
##더머니
##나서
##되기를
##병의
##병사단
##득점을
##실적
##실습
##실장은
##실적을
##차관
##차트
##업이
##게뜨
##카노
##카드의
##화되어
##국장을
##파워
##티나이
##래의
##육군
##여건
##테가
##슈빌
##민원
##민철
##유행
##유니버
##van
##집권
##출연
##법상
##법원은
##합창
##철이
##받았던
##처는
##북구
##씨에게
##오로
##오동
##복무
##결과를
##요양
##플렉스
##명사
##명칭
##운전자
##TE
##골프
##RS
##베인
##베네
##번이
##망이
##구급
##생에너지
##PI
##PD
##용으로
##레와
##브의
##방문
##방해
##태현
##촉진
##함은
##프스
##거가
##재료
##재헌
##현정
##연계
##입한
##네트
##배인
##배마
##축재
##축제를
##축제가
##종화
##종으로
##익이
##팅을
##탈삼진
##케어
##키스타
##길의
##쟁한
##할머니
##백을
##졌을
##iy
##iff
##피에
##피트
##bo
##bee
##클을
##글을
##GN
##평구
##초가
##덕광
##담배
##웠고
##았을
##DU
##뷰티
##B48
##돼야
##란데
##독재
##바페
##바람
##능한
##uy
##봉은
##액의
##룩스
##빈은
##혼을
##매니아
##박의
##박스를
##컨덕
##wn
##저를
##US
##링거
##팩스
##갑산
##날에
##욱을
##히며
##탄에
##딘지엠
##푸라
##렸기
##변경
##컬리
##롭고
##됨으로써
##뤼네부르크
##펀드
##ин
##eng
##ctor
2022
##ony
13명이
1860
14세의
16세기
23개
234년
30대
30만
30여명이
30분에
3000만
한국군
한국중
한국위원회
한국당은
한국표준
한국장학재단
한국지엠
##0년경
##리아와
경기였다
광주서구
광주신세계
대표이자
##lan
선수생활을
서울행정
##3년부터
대통령과의
이후부터
이후로는
##회의는
지역에서의
지역사회의
##eak
조선에
360
의원도
395년
후보로서
후보자의
국민들은
국민중심
1979
국가인권
국가재건
감독직에서
시즌은
8월부터
##대표를
##레이스
되었다는
##arro
##교육의
7월까지
활동할
지원하여
시작되어
국제협력
국제형사
국제해사기구
아이가
아이치
현대로
현대전자
현대위아
부산지역
6월부터
이어졌고
제1공화국
제1서기
우승컵을
자신감을
전라선
독일과
독일계
배우가
참여자
참여하면서
중국으로
중국중앙
운영된다
세계가
세계은행
세계선수권
이용주
진행했고
진행하였고
##센터에
연구에
연구소의
대학교이다
##ican
중앙대학교
##본부장을
위원장에
라이더
라이너
천황이다
문재인정부
##운동이
국회의원의
선거에는
추진했다
한편으로
그룹으로
100주년
경기도의회
아르투아
##기업과
전국에
스타드
##지원과
##지원팀
##지원센터는
통합한
##하지는
그러한
모두의
##복지재단
사람인
이상이
이상으로
##산업에
데뷔했으며
##된다는
##된다면
사장으로
시민을
하나원큐
3세에
2019년에는
관계자들을
관계자들과
##이트를
사용자
사용된
사용되었다
우리당
11일까지
방문했을
##하자마자
공격했다
사건에서
아니었다
2012년에는
로마를
수상하였고
수상자인
2017년까지
전북의
16일까지
알려지게
계획이
상황이었다
야구부
여성이
2009년부터
활약하는
활약했으며
##고등학교와
##고등학교의
13일까지
사실상의
제2군단
14일부터
예정으로
예정되어
예정이었다
여수시장
진출할
진출하게
출전에
2019학년도
구성하였다
결정했다고
##항공과
정책의
차지하면서
차지했으며
클럽에
제작을
고려에
고려개발
캐나다에서
임명하는
통일국민당
2013년부터
다이너
전문기업
지도자가
지도자로서
적극적
창당하였다
창당하여
여자친
항공과
##지사와
마이티
마드리드로
여러가지
MBC경남
평가하는
국가대표팀을
선수로는
자이언츠에
마르티노
마르코스
생활체육
발생해
특별교부
##시키지
물리쳤다
목포대학교
최종전에서
지속되었다
박정희와
##경찰서에
조직지도
2002년부터
이동국의
##단체인
돌아갈
월드컵을
월드컵에서는
필리버스터
당선되었고
졸업하였다
학교에
지지자
이재광
챔피언스리그에
각각의
##교회는
시리즈에서는
광주시의
구단과
어려워
어머니와
기관인
##병원으로
##베르는
연합군은
화순군수
공무원의
보건복지부장관
1년만에
취임식을
2001년에는
2001년까지
기술자
유나이티드와의
이정우
2003년에는
1987년에는
##시켰으나
베어스가
##환경청
1995년에는
역할로
입단하였고
만나고
요구한
요구하였다
확보와
확보하고
확보했다고
북한은
준비가
협력사
인정받은
인정받고
가톨릭대학교
판매한다
바이에른은
총리직을
알렉산드라
타이거JK
##라인은
소비자들의
사무실
정당한
확대와
광산구을
광산구갑
인물로는
계약했다
소련은
시행한
시행했다고
CJ대한
일제히
구축과
구축할
구축했다
##선거법
결성하였다
결성하였고
2차장
면서도
유지태
해외로
해외에서
발전시켜
예산안
150여
1508년
1504년
1860년
아우르는
강진군은
바르셀로나로
바르셀로나와
민족의
1986년부터
해양경찰청
뮌헨의
요청하는
이해할
앨범인
자리로
가족의
전망한다
국왕이
시간에
김재걸
보내며
대비하여
군사정변
바른미래당의
전남도당
가문이
베르누이
연속골을
설치하여
히로키
인천광역시장
음반의
주최로
1991년에
1991년부터
드러난
1870년
1879년
Champ
##부장관을
없다며
1946년에
와이번스와
1854년
발매하였다
아메드
##수영선수권대회
스포츠의
스포츠서울
오늘의
연고지를
1984년에
담당자
담당했다
##국제수영
개인적으로
활용할
대한항공은
라이온즈와
제3의
수행했다
수행하는
전체회의에서
나가노
경성대
내년에는
공모전을
1847년
강조한
회원사
회원들이
동구청
센트럴시티
1580년
교통방송
1481년
1483년
소재의
1474년
나폴리의
이종찬
이종명
이종범
제안하였다
개혁과
전라북도지사
유재흥
임대료
가입하였다
마리벨
서구청장
##스토어
김원성
지정한
##사이버
현지에서
##연대는
김종필이
신세계백화점
왕비로
장남이다
합병을
상태를
상태였다
차례나
임시정부와
의미한다
직원들에게
세르비아계
상임위원회
상무는
축하를
질병관리본부에서
넘어갔다
장성규
1762년
상하이로
통치한
파이리
사퇴를
사퇴한
사퇴하면서
선생은
광양항
광양제철
##보고회를
고등학교에
재직하던
점령하고
점령하였다
신인상을
세웠으나
최고위원은
이란의
시도한
판단해
산업통상자원부장관
III
업체가
제품의
1814년
1422년
공정위
첼시의
초청하여
##ada
##adem
아마도
배출해
1711년
블루윙즈의
새정치국민회의에
박사학위를
유치에
이병헌
집행위원장
개막전
##소방학교
자체적으로
입당하였다
방탄소년단의
개편하여
선택했다
자치분권
##기념관
##니오르
몽골의
합당에
대법원장
후지이
최영애
민주노동당과
블루윙즈로
검토하고
제5공화국
경희대
남북협
물러나고
##사건으로
전신으로
##전선의
##프리트
김광현
상승이
이주한
방영되었다
##추진위
##추진위원회
1964년에
1958년에
##노동조합이
아스널의
가르쳤다
김경수
나누기
승인했다
이뤄졌다
박상준
사과문을
가져온
에르제
##iano
Joy
지내던
효과적인
사법시험
작업한
##해주고
캐릭터를
브리핑룸에서
않았기
변화의
취소하고
선도하는
대체로
부분이
체코의
1부리그
조승우는
총괄대표
파주시는
##의약국
J리그의
분리된
아무런
추대했다
추대되었다
사례는
탈락하였다
3차전에서
도미닉
무장친
야당인
400여명이
##코프스키
필요하다는
알바니아의
단일화에
유승준
뉴스룸
부회장은
부통령을
합격하여
양주시는
정복하여
##하나은행
아르주나의
라리가의
채택한
대형마트
행정부지사
1728년
떨어뜨
떨어졌다
미네르바
집단감염
하반기부터
현대그룹의
관광객들이
김희철
실질적
위키미디어
이원수
장수군
준결승에서
폐지되었다
머물렀
무소속의
센터백이다
비행기
서울대교구
가이아
1천여
연대기
유아기를
부산시당
문화재청장
방침에
엑스원
재학생들의
고시엔
비교해
정무수석
편입되었다
라치오는
매카시
바라타
죽음에
라이프니츠
Boys
고종후
##엑스포
김선동
노인일자리
주거환경
##네이터
신민아
호날두는
없어서
연계한
자랑하는
##ife
높아졌다
파라다이스
LIG
Lamb
미하엘
여러분께
유니버시티
전속계약을
항의하는
##프로그램을
유벤투스의
그것이
알라딘
좌파당
파악하고
화장실
효율성을
제10대
AKB48
대리점
##박람회를
한국프로야구
개교한
게오르
북쪽의
안동시
우익수
정치가이며
DeNA
구간에
쌍용자동차
원더러스
매니저로
송시열의
정태옥
정태춘
모터스의
이만섭
슈팅이
슈팅을
연휴를
주연으로
내놓았다
앤드류
워크하우스
##고용노동
스탠퍼드
서포터즈
송영무
연희전문학교
제휴를
사이먼도미
아소카는
VIP
공화인민당
발의한
안드레이
양평군은
구수왕의
당수인
대대적으로
압박을
성황을
제9대
중앙방역대책본부장은
김세연
루도비코
발레리
병사들이
Korean
##담당관
부모님과
법조인
베니토
입사하여
증진에
에어부산은
3연패
기쁘게
김택진
단순한
최소화하기
무리한
무리뉴
부총재
##프랑크의
LSI
극장판
마스터즈
민병두
생물학자
청취하고
빅뱅의
원자력안전
최시원
타케우치
파기하고
##투쟁을
과르디올
박선호
박태준
심지어는
연금술사
프랜차
김두관
김계원
김계조
세미컨덕
카스티야의
연남건은
강희제
General
신생당
이니스프
##ICE
##즈노오
##총괄조정관
스카이워커스
겨냥해
겨냥한
떠올랐다
스플릿
정용기
진성대군
조선민족청년단
올림피아코스
Heart
동학농민
마요르카
보헤미아
신입생
아테나
지질학자
침체된
##우주연
Luc
경향이
경향신문
김춘진
네오위
네오트랜
디렉터
바예지드
통계청
다카우지
두료다나는
1심에서
Group
Network
광서제
구독자
진평왕
파나티나이
호노리오
호노리우스
후진타오
##경쟁력
대표발의한
LG유플러
Count
Center
FNC엔터테인먼트
대도시권
여흥부대
파스칼
홍명보
어려움이
세븐티식서
David
깨끗한
되돌아
로맨틱
총동문
브라운슈바이크뤼네부르크
DSP
Fred
관세청장
그루지야
로드리게스
박희광
시아파
에프엑스
치렀고
컨센서
컨센서스
영원히
조선중앙통신
대니얼
리에주
박두식
브란덴부르크
야쇼다라는
##바야시
제주삼다수를
새만금개발청
꿈꾸는
수퍼비
응오딘지엠
카투사
현대기아차
여론조사에서
System
슈뢰딩
알제리
양현종
예식진
오연서
이누야샤
황희찬
대구보건대학교
라스베이거스
Justin
Louis
MBN
NAVER
계룡건설
서서히
자아냈다
지중해
콘서트를
##상록자원봉사단
아메바컬쳐
##테크노파크
미스틱스토리
양해각서
Simon
고메스는
광동제약
도밍게
비엔나
성시경
우기종
인삼협동조합
태광실업
퍼포먼스를
호심학원
한국환경산업기술원
데모크리토스
맥도날드
바베이도스
베스파시아누스
Academ
가난한
군복무를
##교직원노동조합
Technology
부에노스아이
다행히
불확실
옹성우
인어공주
하크니스
##아이스하키
##촉성국민회
최고경영자
근로복지공단
메리츠종금
베이비복스
일부개정법률안
네스토리우스
논평에서
무스타파
박덕흠
비야레알
순원왕후
앨라배마
조오섭
추신수
코민테른
##프로젝트
파리바게뜨
GS칼텍스
사르코지
던킨도너츠
JUMP
고미즈노오
도저히
못말려
무솔리니
보아르네
비로소
셀레우코스
쇼미더머니
이케다
자릿수
최첨단
##플래닛
행정1부지사
인도아리아
신성로마제국
ADT캡스
인류무형문화유산
베아트리체
아펜젤러
한국철도시설공단
노르트라인베스트팔렌주
㈜오뚜기
고랑포
기예르모
노소영
눈앞에
드렁큰
디보크
무앙통
백혜련
쏘스뮤직
아후라
우효광
이윽고
일리네어
차세찌
청심국제
텔아비브
포세이돈
피르미누
국가인권위원회
CJ대한통운
Champion
사이먼도미닉
1점을
1억원을
1군에
1등급
2점
2백
2명이
3명을
3번의
3분의
4연
4남
4곳
44년
5층
6기
6촌
6명
6번
6인조
750
7세가
8명이
8개월
800만
A를
AF
A에서
ANA
ANC
Ass
Award
BMW
C로
Card
Dam
ES
Fri
FTA
GV
Gard
Girl
Hor
HMS
IEC
J3리그
KL
MO
Med
Met
Mov
Or
OL
Off
Pre
Public
Ra
Ron
Rap
Say
SAS
Sant
Tran
Van
WC
Wol
Wal
Your
com
da
go
god
가사
가토
가천
가혹
가리지
가시청
가브란
각성
각급
각지의
간행
간절히
감정을
감동을
강유
거점을
건문제
걷기
걸렸다
검모
격차로
결산
결단을
결론을
겹쳐
경관
경원
경건
경감
경전선
경합을
계통
고은
고무
고병
고카
고국
고씨
고생
고연
고부가
곡의
골절
골망을
공용
공빈
공부를
공적을
공세를
공항을
곽영주
광신
광학
광일고등학교
교과
교리
교두
구승
구준
구두
구장에서
군위
군과
군에서
군대는
권력이
규정을
규정에
규칙을
그날
극대
근친
근절
글에서
금요일
급변
기호
기쁨
기태영
기염을
길로
김숙
김의
김나
김훈
꺾었다
꼼꼼
꿈의
꿈나무
끝냈다
나스
나세
나훈
낙하
난을
날이
날인
날씨
남이
남게
남만
남매
남성이
낭독
낳았고
내렸고
넣는
네일
노이
논리
농수
높았다
높았던
눈이
눈물을
뉴잉글랜드
늘려
능동
다산
다비
다녔
다가가
다득점
단식
단재
달했다
달성을
당이
당장
당당
당국의
당대회에서
당국은
대인
대담
대교구
대무신
더스틴
데니
도는
도스
도주
도광
도래
도종
도핑
도약을
돌풍을
돕고
동군
두었고
드골
드리는
들뢰
등용
등지에서
디즈
디바
따돌
땅을
때와
뜻이
뜻에
라테
라흐
라멜
라오스
랜드로
랭크
러일
레가
로타
로보
로컬
로스트
로베스
롬바르
루벤
룰라
류한
르호
리영
리요
리키
리디아
링고
마야
마스
마고
마즈
마산시
막는
만슈타
말도
말미
망명했다
맞다
매슈
매닝
매장을
맥그리
맨틀
맨유
메수
메흐
면장
명복을
명필름
명맥을
모의
모던
모셔
모리스
목동
목적을
몰라
몰고
못할
무더
무게
무술
무풍
무릅
문교
문병
물의를
미친
미륵
미트라
미치지
민애
민홍철
밀라
밀리언
바에
바레
바깥
바레인
바빌로니아
박하
박나
박범
박경완
반감을
받으
발부
발동
발송
방북
배워
배운
배속
백일
백남
백지영
밴드는
밸류
버팀
버나드
번이나
법에
벗어
벗고
베일
베테랑
벤틀
벨루
별칭
별명은
병력이
보충
보얀
보았다
보일러
복구
복숭
본드
본회의에서
봉오동
봤을
부리
부부를
부총장
분전
불평
불렸다
불안을
브렌
블로
비시
비인
비투
비스트
비무장
빈곤
빛냈다
뽀뽀
뿐이었다
사서
사양
사의
사당
사샤
사연을
사사키
삭발
산정
산청
삶이
삼일
상사
상명
상환
새턴
새겨진
생길
생긴
생겼다
서라
서신을
서유럽
석좌
선관
선천
선덕여
설하
섰다
성의
세쿠
세대의
셈이다
소지
소용
소프
소폭
손호영
손소독
솔다
송진
송준
송광
송파
쇼치쿠
수아
수시
수목
순위를
순위에서
숨을
슈만
스월
스바
스캔
스래시
습격
시발
시켰
시위에
시신을
식물
신발
신주
신씨
신지원
신자인
신정치
실물
실습
실각
실장이
심수
십일
싸운
쌤소나
쓰레기
아와
아임
아리스
안을
안효
안철
안녕
안겼다
않다고
알모도
앓고
압수수
애경
야후
야권의
양이
양을
양일
양사
양일간
어둠
어부지
억제
얼터
엄중
없음을
에런
에닉스
에리크
엑토르
엔도
엔터테
엔진을
여인
여순
여지가
여왕과
여진구
연내
연계를
열람
예우
예거
오장
오그
오피
오취
오동진
올레
와중에
완승을
왕후
왕징
왕자가
왕가는
외출
요시오
우회
우아
우석
우병
우편
우엽
운반
울리
웃타라
워커
원천
원만
원료
원했다
원심을
원도심
월북
월남
웸블리
위법
위즐리
위너스컵
위메이드
윈도우
유라
유선
유용
유태
유례
유느님
윤원
윤두
을에
음식을
의사회
의장으로
의사의
의문을
의지가
의지와
이과
이청
이브
이휘
이덕
이별
이겼
이시스
이소로
이즈미
인척
인덕
인력을
